<unk>	0
<s>	0
</s>	0
.	-2.67014
▁eine	-3.29257
▁Ein	-3.38858
m	-3.45933
▁in	-3.54835
▁mit	-3.83762
,	-3.84192
▁und	-3.8434
▁auf	-3.85871
▁ein	-3.87863
▁Mann	-3.97545
▁einer	-4.13625
▁Eine	-4.25599
n	-4.29565
▁der	-4.52578
▁Frau	-4.59533
em	-4.65761
▁die	-4.74508
▁	-4.76164
s	-4.76296
▁einen	-4.85598
▁Zwei	-4.87446
▁an	-4.87975
▁im	-4.90651
-	-5.12034
▁von	-5.17455
▁sich	-5.20758
▁Mädchen	-5.2667
▁dem	-5.27353
r	-5.29681
en	-5.30612
▁zu	-5.32712
▁vor	-5.35124
▁steht	-5.45665
▁Männer	-5.50662
▁den	-5.52061
▁Hund	-5.54529
▁sitzt	-5.54782
▁Junge	-5.55818
▁Straße	-5.6736
▁während	-5.70562
▁Gruppe	-5.73195
▁hält	-5.76203
▁spielt	-5.76276
e	-5.78213
▁bei	-5.8238
▁Hemd	-5.83861
▁über	-5.85876
▁Personen	-5.89123
▁seine	-5.902
▁das	-5.92278
▁blauen	-6.04577
▁Frauen	-6.05456
▁ist	-6.06968
▁Kind	-6.0747
▁neben	-6.07477
▁roten	-6.08804
▁aus	-6.08966
▁weißen	-6.09016
▁Menschen	-6.09192
▁stehen	-6.09964
▁durch	-6.11176
▁sitzen	-6.12113
▁am	-6.13523
▁ihre	-6.14118
▁spielen	-6.14568
▁Drei	-6.15001
▁Wasser	-6.17045
▁geht	-6.1875
▁trägt	-6.19672
▁fährt	-6.21346
▁um	-6.21929
▁Kinder	-6.22916
er	-6.24413
t	-6.29013
▁Person	-6.29966
▁kleines	-6.31971
▁macht	-6.32343
▁springt	-6.34652
▁zwei	-6.36606
▁entlang	-6.37409
▁kleiner	-6.39113
▁schwarzen	-6.39632
▁Leute	-6.44142
▁gehen	-6.52505
▁etwas	-6.57119
▁großen	-6.60995
▁Oberteil	-6.61525
▁Hand	-6.64505
▁junge	-6.7041
▁Fahrrad	-6.70577
▁Mehrer	-6.72057
▁grünen	-6.72396
▁sein	-6.72843
▁läuft	-6.74083
▁sind	-6.74678
▁Strand	-6.74767
▁Der	-6.74901
▁Jacke	-6.75636
▁für	-6.76533
▁Hintergrund	-6.76536
▁Ball	-6.76739
▁Luft	-6.78847
▁Freien	-6.79712
▁hat	-6.79956
▁schaut	-6.8124
▁Jungen	-6.81951
▁anderen	-6.82028
▁Kleidung	-6.82578
▁hinter	-6.84112
▁junger	-6.85318
▁T	-6.86133
▁nach	-6.86799
▁andere	-6.87935
▁ihr	-6.9214
▁Gebäude	-6.92327
▁Tisch	-6.92493
▁gelben	-6.93277
▁Hut	-6.96028
▁sie	-6.96255
▁Schnee	-6.96555
▁kleine	-6.97461
▁Nähe	-6.98303
▁wird	-6.98303
Shirt	-6.98697
▁Hunde	-7.0013
▁Kamera	-7.00897
▁Menschenmenge	-7.02261
▁vorbei	-7.02276
▁hoch	-7.02539
▁kleinen	-7.02584
▁Gras	-7.03341
▁schwarzer	-7.03873
▁weiße	-7.04609
▁Boden	-7.05824
▁schwarz	-7.06935
▁unter	-7.08067
▁Die	-7.09663
▁rennt	-7.11564
▁Vier	-7.14557
es	-7.17515
▁Kleid	-7.18975
▁zusammen	-7.20528
▁Gitarre	-7.21156
▁Feld	-7.2311
▁Bühne	-7.25832
▁älterer	-7.26219
▁herum	-7.27293
▁Brille	-7.27548
▁fahren	-7.27951
▁blau	-7.28912
▁Kopf	-7.28915
▁draußen	-7.28943
▁Foto	-7.29549
▁Stadt	-7.30334
▁Gehweg	-7.30359
▁er	-7.31078
▁gekleidete	-7.31739
▁Jeans	-7.32878
▁sehen	-7.32933
▁Park	-7.33596
▁dabei	-7.35108
▁rot	-7.35441
▁des	-7.35812
▁blickt	-7.35863
▁hinunter	-7.36603
▁braunen	-7.40134
▁liegt	-7.40485
▁weißer	-7.40521
▁versucht	-7.40875
▁Baby	-7.42035
▁arbeitet	-7.4207
▁Bank	-7.43282
▁wie	-7.44077
▁laufen	-7.45322
▁tragen	-7.45588
▁große	-7.45634
▁Dame	-7.45656
▁als	-7.45745
▁ältere	-7.46048
▁Paar	-7.46265
▁rote	-7.46467
▁Skateboard	-7.46953
▁Essen	-7.47018
▁machen	-7.48276
▁schauen	-7.48284
▁blaue	-7.4838
▁lächelt	-7.48698
▁brauner	-7.5085
▁ihm	-7.53974
▁orangefarbenen	-7.54152
▁Bürgersteig	-7.54426
▁Hose	-7.55847
▁weiß	-7.56925
▁zeigt	-7.57662
▁junges	-7.58219
▁arbeiten	-7.58418
▁sieht	-7.58594
▁unterhalten	-7.59072
▁spricht	-7.59078
▁Wand	-7.59276
▁liest	-7.59544
▁Fußball	-7.60896
▁drei	-7.61438
▁halten	-7.61478
▁blonde	-7.62471
▁Haaren	-7.63201
▁Boot	-7.6515
▁Pferd	-7.65527
▁Sonnenbrille	-7.65615
▁rosa	-7.67775
▁Auto	-7.68736
▁ab	-7.69216
▁Tag	-7.69485
▁schwarze	-7.6995
▁Hosen	-7.71122
▁Helm	-7.71423
▁Bild	-7.72461
▁singt	-7.7389
▁Gesicht	-7.73905
▁grauen	-7.74073
▁ihnen	-7.75283
▁Felsen	-7.75859
▁„	-7.76119
▁Mantel	-7.76687
▁posiert	-7.78398
▁Baum	-7.78885
▁darauf	-7.78976
▁Sand	-7.79065
in	-7.79084
▁klettert	-7.8016
▁führt	-7.80731
▁Shorts	-7.80761
▁befindet	-7.81324
ten	-7.83214
▁S	-7.83293
▁Mikrofon	-7.83433
▁Wald	-7.84211
▁Band	-7.84376
▁Restaurant	-7.84739
▁Fenster	-7.86041
▁wirft	-7.86227
▁Arbeiter	-7.86264
▁Meer	-7.86618
▁blauer	-7.87247
▁Weg	-7.87443
“	-7.87463
▁Das	-7.87566
▁sehr	-7.88081
▁gekleideter	-7.88405
▁rennen	-7.88803
oder	-7.89106
▁Pullover	-7.8936
▁Raum	-7.90019
▁schwarzem	-7.92514
▁isst	-7.9262
▁Haar	-7.93131
▁Wiese	-7.93957
▁Spielzeug	-7.93961
ischen	-7.94004
▁Motorrad	-7.94203
▁Anzug	-7.94632
▁mehrere	-7.94634
▁wartet	-7.95313
▁anderer	-7.95331
▁Berg	-7.95741
▁essen	-7.95804
▁langen	-7.9584
▁roter	-7.96489
▁Bluse	-7.96688
▁werden	-7.97386
▁grüne	-7.9791
▁Trikot	-7.97992
▁posieren	-7.98082
▁springen	-7.98147
▁Spieler	-7.98464
▁viele	-7.98468
▁zum	-7.98596
▁gestreiften	-7.99603
▁Oberkörper	-8.00209
▁U	-8.00329
▁Kindern	-8.01581
▁asiatische	-8.01591
▁belebte	-8.01654
▁zw	-8.01701
▁Hügel	-8.02384
▁Stuhl	-8.02385
▁voller	-8.02539
▁Fünf	-8.03119
▁Viele	-8.03134
ung	-8.03251
kleidung	-8.03364
▁Schild	-8.03749
▁bunte	-8.03799
▁einige	-8.05044
▁Spiel	-8.05876
▁betrachtet	-8.06115
▁braun	-8.06628
▁Buch	-8.06882
▁Handy	-8.07607
▁Blumen	-8.07806
▁tanzen	-8.09083
▁Männern	-8.0939
bereitet	-8.09697
▁schläft	-8.09992
▁warten	-8.1051
▁Stock	-8.10785
▁zieht	-8.10851
▁Mütze	-8.11015
▁oben	-8.11718
▁Holz	-8.11734
▁Bauarbeiter	-8.12355
▁Arm	-8.12495
▁lehnt	-8.13209
▁reitet	-8.13221
▁Kleinkind	-8.14622
▁Fluss	-8.14745
▁beobachtet	-8.14851
▁Rennen	-8.14917
▁Händen	-8.15014
▁alter	-8.15336
▁Maul	-8.1566
▁miteinander	-8.16048
▁Rucksack	-8.16524
▁Radfahrer	-8.16852
▁Bäumen	-8.1693
▁Leuten	-8.17209
▁tanzt	-8.17372
▁paar	-8.17413
▁vo	-8.18046
▁es	-8.20583
▁Küche	-8.2072
▁See	-8.21051
▁befinden	-8.2172
▁schneebedeckte	-8.2172
▁schiebt	-8.21735
▁Football	-8.22077
▁männliche	-8.22161
weißer	-8.22541
den	-8.22588
▁haben	-8.22656
▁grün	-8.23117
▁Schwimmbecken	-8.23534
▁bereit	-8.23852
▁ge	-8.23868
▁gegen	-8.24421
▁Seite	-8.24906
▁Welle	-8.25857
▁Zaun	-8.26337
▁Treppe	-8.26772
▁umgeben	-8.27215
▁kurzen	-8.28005
▁Rücken	-8.28198
▁lächeln	-8.28999
▁Zug	-8.29224
▁gelbe	-8.29227
▁Fuß	-8.29911
▁karierte	-8.3008
▁verkauft	-8.31029
▁versammelt	-8.31033
▁Familie	-8.31406
▁orangefarbene	-8.31693
der	-8.32067
▁Diese	-8.32541
▁Geschäft	-8.32706
▁braune	-8.32751
▁trinkt	-8.33
▁Markt	-8.33982
▁be	-8.34766
▁Bus	-8.34896
▁wo	-8.35378
▁ihn	-8.35508
▁gekleidet	-8.35669
▁rosafarbenen	-8.35695
▁hängt	-8.36048
▁schneidet	-8.36079
▁Reihe	-8.36667
▁gerade	-8.37059
Bahn	-8.37224
▁Haus	-8.3766
▁ver	-8.37662
▁telefoniert	-8.38103
▁Seil	-8.38265
▁Musik	-8.38903
a	-8.39099
▁Zeitung	-8.3918
▁Wagen	-8.39216
▁spazieren	-8.39218
▁malt	-8.40226
▁fangen	-8.40234
▁Gewässer	-8.40449
weißen	-8.40489
▁zur	-8.4066
ige	-8.41059
▁Schwarz	-8.41266
▁nimmt	-8.41374
▁herunter	-8.42046
▁Sprung	-8.42381
▁schwimmt	-8.42396
▁sonnige	-8.42418
▁Basketball	-8.42976
▁Autos	-8.43018
▁teil	-8.43022
▁Geländer	-8.43599
▁großer	-8.43645
▁Fußballspieler	-8.43923
▁Hände	-8.44372
▁Brücke	-8.44592
▁Kopfbedeckung	-8.44597
▁blicken	-8.44615
▁schlägt	-8.44626
▁gelb	-8.45186
▁Bart	-8.45377
▁Zuschauer	-8.45502
▁Mutter	-8.45721
▁Weste	-8.46655
▁Tasche	-8.46674
▁Himmel	-8.46852
▁Publikum	-8.46852
▁fliegt	-8.46874
▁Richtung	-8.47452
▁hinauf	-8.47721
▁kämpfen	-8.48001
▁Platz	-8.48002
▁Papier	-8.48008
▁hebt	-8.48016
▁aussehende	-8.48344
l	-8.48412
▁Gebäudes	-8.49611
▁dunklen	-8.50622
▁Graffiti	-8.50685
▁Erwachsene	-8.52122
▁hohen	-8.52183
▁gestreifte	-8.52667
o	-8.52698
▁Hof	-8.52754
f	-8.53299
de	-8.5376
▁Auf	-8.53976
▁verschiedene	-8.55055
▁zuschauen	-8.55249
▁vier	-8.55453
▁Schirm	-8.55901
▁asiatischer	-8.56102
▁Teenager	-8.56229
▁alte	-8.56301
▁Hemden	-8.5687
▁davon	-8.57705
d	-8.58106
▁Mitte	-8.58207
▁blondes	-8.58563
▁freie	-8.58617
▁Decke	-8.58932
▁dunkelhäutige	-8.58988
▁genießt	-8.58988
▁überqueren	-8.58988
▁Mauer	-8.58994
▁Schaukel	-8.59015
▁Schal	-8.59557
▁Metall	-8.59806
▁kurz	-8.59911
▁Stück	-8.59958
▁Spielplatz	-8.60272
▁Jemand	-8.60286
▁Frisbee	-8.6029
igen	-8.60831
▁da	-8.6146
▁benutzt	-8.61602
▁lacht	-8.61606
▁Rock	-8.61617
▁tritt	-8.61734
▁In	-8.61971
▁Kunststück	-8.62657
▁Dach	-8.62941
▁Pool	-8.62954
▁Alters	-8.63054
▁Zuschauern	-8.63184
halb	-8.63394
▁E	-8.6344
▁Baseball	-8.63915
▁Computer	-8.64155
▁Blick	-8.64281
▁Rasen	-8.64282
▁Menge	-8.64287
▁Sofa	-8.64287
▁nahe	-8.64463
▁Augen	-8.64477
▁Eis	-8.64707
▁graue	-8.64753
▁Shirt	-8.65222
▁Mannes	-8.65331
▁Zigarette	-8.65657
▁unterhält	-8.65663
▁Bier	-8.65666
▁städtische	-8.65687
▁nackte	-8.66154
h	-8.66164
▁Mensch	-8.66531
▁Sport	-8.66634
▁lila	-8.66939
▁zusieht	-8.67046
▁Stein	-8.67147
▁Baseballspieler	-8.67175
▁alten	-8.67201
▁Mannschaft	-8.67252
▁öffentliche	-8.67871
▁Regen	-8.68458
▁nebeneinander	-8.6852
▁zuschaut	-8.68528
▁fest	-8.69892
▁lässt	-8.69926
▁zusehen	-8.70051
▁Typ	-8.70797
▁großes	-8.71322
▁Gegenstand	-8.71332
▁Surfer	-8.71334
▁nachts	-8.71342
▁Basketballspiel	-8.72064
▁Tor	-8.72595
▁orangen	-8.72678
▁versuchen	-8.72803
▁Mund	-8.72805
▁Bett	-8.72807
▁hinten	-8.7283
▁Sonne	-8.72836
▁Straßen	-8.73091
anzug	-8.74167
▁beobachten	-8.74295
▁scheint	-8.74302
▁gibt	-8.74367
▁treten	-8.74524
▁Fotos	-8.74716
▁weg	-8.74762
▁Ski	-8.75182
▁orange	-8.75576
▁Gemüse	-8.75797
▁Wanderer	-8.75837
▁trinken	-8.75843
▁Nummer	-8.75934
▁Flagge	-8.75992
▁An	-8.76114
▁Ufer	-8.76506
▁Outfit	-8.7665
▁Uniform	-8.76853
▁raucht	-8.77348
▁fängt	-8.77349
▁kniet	-8.77356
▁Schürze	-8.77501
▁Stange	-8.77532
fahrer	-8.7782
▁nicht	-8.78004
▁führen	-8.78054
▁beide	-8.7875
▁her	-8.78757
▁Glas	-8.78877
▁liegen	-8.78906
▁betrachten	-8.78911
▁Ferne	-8.78912
▁Läufer	-8.78919
▁verschneiten	-8.792
▁Stufen	-8.79222
▁Nacht	-8.79227
▁Armen	-8.79323
▁ins	-8.79401
▁gleich	-8.80396
▁Kleine	-8.80438
▁Feuer	-8.80488
▁Gehsteig	-8.80498
▁Rampe	-8.80519
weiß	-8.80535
▁K	-8.80666
▁Trikots	-8.80793
▁außer	-8.82114
▁Veranstaltung	-8.82161
k	-8.82813
▁grau	-8.82913
▁offene	-8.83526
▁Zelt	-8.83626
▁Tennisball	-8.83754
▁bedeckt	-8.83764
▁unten	-8.8378
▁Art	-8.83825
▁Snowboarder	-8.83919
▁einander	-8.84038
▁F	-8.84316
▁Lebensmittel	-8.84737
▁Sonnenuntergang	-8.85417
▁Leiter	-8.85419
▁sitzende	-8.85538
▁lächelnde	-8.85724
▁mittlere	-8.8602
weiße	-8.86052
▁Musiker	-8.86061
▁Obst	-8.87104
▁greift	-8.87112
▁Aufschrift	-8.87112
▁Skifahrer	-8.87132
▁Statue	-8.87166
▁rutscht	-8.87181
▁Herr	-8.87391
ing	-8.87483
▁Bar	-8.87735
Spieler	-8.88106
▁lachen	-8.88302
▁blonden	-8.88352
▁a	-8.88435
▁Weiß	-8.88506
bei	-8.88563
▁Braut	-8.88831
▁Brunnen	-8.88836
▁fotografiert	-8.88836
▁hilft	-8.88836
▁Bikini	-8.88842
▁Rodeo	-8.88844
▁Grill	-8.89076
▁Kleidern	-8.89177
▁Fisch	-8.8964
▁reden	-8.89678
▁diese	-8.89824
▁Tür	-8.90056
▁Polizist	-8.90065
▁jungen	-8.90185
▁H	-8.9049
▁Beton	-8.90549
▁surft	-8.90599
echs	-8.9063
▁bärtiger	-8.90671
▁man	-8.90787
▁Hüten	-8.90887
▁A	-8.9176
▁Haare	-8.91846
▁Volleyball	-8.92163
▁unbefestigte	-8.92376
▁überquert	-8.92384
▁Motorradfahrer	-8.92426
▁werfen	-8.9251
▁beiden	-8.9274
▁lächelnd	-8.92847
▁Polizisten	-8.92914
ie	-8.93046
▁Kostümen	-8.93134
▁P	-8.93617
▁B	-8.93808
▁grüner	-8.94012
▁Maschine	-8.94081
▁legt	-8.94195
▁versammeln	-8.94195
▁zurück	-8.94205
▁Sweatshirt	-8.94219
▁alle	-8.94594
▁Rutsche	-8.96046
▁Korb	-8.96047
▁Leine	-8.96048
▁nehmen	-8.96209
▁Vater	-8.97023
▁lange	-8.97057
itten	-8.97589
▁voll	-8.97672
▁rothaarige	-8.97939
▁kommt	-8.97991
i	-8.9804
▁amerikanische	-8.98064
▁Damen	-8.9835
▁Eimer	-8.98479
▁viel	-8.98803
▁Bei	-8.99644
▁gelbem	-8.9982
▁genießen	-8.99856
▁schreibt	-8.99856
▁Pfad	-8.99857
▁Ende	-8.99919
▁guckt	-8.99964
▁stellt	-9.00057
▁Getränk	-9.00092
▁jüngere	-9.01034
▁Rad	-9.01136
▁Schutzhelm	-9.0129
▁Schlagzeug	-9.01585
▁Garten	-9.01738
▁Mikrophon	-9.01817
▁lilafarbene	-9.01978
▁Soldaten	-9.02052
▁leeren	-9.02073
▁Fahrzeug	-9.0208
▁Stühlen	-9.02154
▁Westen	-9.02164
▁so	-9.02171
▁gemeinsam	-9.02223
y	-9.02317
▁rosafarbene	-9.02486
▁Kostüm	-9.0318
▁Vogel	-9.038
▁ohne	-9.03817
▁Baustelle	-9.03826
▁Umgebung	-9.03827
▁streckt	-9.03845
▁leuchtend	-9.04167
▁Rot	-9.04509
▁Wellen	-9.04739
▁Trick	-9.05034
▁Geschäfts	-9.05468
▁ganz	-9.0574
▁Krawatte	-9.05858
▁schwingt	-9.05858
▁kaufen	-9.05858
▁sprechen	-9.05858
▁afrikanische	-9.05859
▁gegenüber	-9.05866
▁asiatischen	-9.05886
▁Badeanzug	-9.05889
▁Kampfsport	-9.05911
▁Konzert	-9.05957
▁weibliche	-9.06181
▁allein	-9.06413
▁Arbeit	-9.06506
▁riesigen	-9.06519
▁Erwachsener	-9.06677
▁Kajak	-9.07056
▁Regenschirm	-9.07076
▁Instrument	-9.07108
▁Schuhen	-9.07265
▁lesen	-9.07595
ch	-9.07703
hört	-9.07937
▁Sohn	-9.07941
▁Parade	-9.07942
▁Gegend	-9.07943
▁Parkplatz	-9.07973
▁Erwachsenen	-9.08177
▁Handschuhen	-9.0837
▁Uniformen	-9.0866
▁Laden	-9.09514
▁Tennis	-9.09808
▁Straßenecke	-9.1007
▁Schreibtisch	-9.10071
▁Straßenrand	-9.10073
▁Bereich	-9.10089
▁starrt	-9.10098
▁dass	-9.10128
▁Waren	-9.1014
▁Kinderwagen	-9.10212
▁gut	-9.10574
▁Snowboard	-9.11222
▁Arme	-9.11385
g	-9.11853
▁gelbes	-9.12088
▁Schoß	-9.12243
▁umarmt	-9.12243
▁Geländemotorrad	-9.12243
▁Pause	-9.12244
▁Party	-9.12246
▁Kanu	-9.12249
▁hin	-9.12256
▁Rand	-9.12266
▁schlagen	-9.12292
▁jagt	-9.12329
p	-9.12399
▁Bergen	-9.12665
▁M	-9.1335
▁pinkfarbenen	-9.13469
▁Netz	-9.14035
▁Kuchen	-9.14465
▁repariert	-9.14465
▁dunkelhaarige	-9.14465
▁klettern	-9.14516
▁älteren	-9.14972
an	-9.15057
▁singen	-9.15495
▁anderes	-9.15646
▁Team	-9.15965
▁Sie	-9.16063
▁Land	-9.16289
▁Schatten	-9.16738
▁gegnerische	-9.16738
▁Vordergrund	-9.16738
▁Base	-9.16747
▁bereite	-9.16897
▁Fahrradfahrer	-9.16918
▁Jugendlicher	-9.17075
▁Schüler	-9.17549
▁weitere	-9.17634
▁Schulter	-9.1771
▁Tanz	-9.18438
▁putzt	-9.19063
▁Fell	-9.19064
▁braunhaarige	-9.19067
chen	-9.19068
▁Schläger	-9.1907
▁gegeneinander	-9.19076
▁Blau	-9.19085
▁Stand	-9.19094
▁Kunden	-9.19261
▁un	-9.19277
▁pinkfarbene	-9.19753
▁verkaufen	-9.20318
▁R	-9.21099
▁balanciert	-9.21444
▁Telefon	-9.21455
▁Arbeits	-9.21468
▁Sandalen	-9.2154
▁Künstler	-9.21681
▁Fahrrädern	-9.22318
▁jemandem	-9.22374
▁Gebäuden	-9.22531
▁Es	-9.22876
▁grasbewachsene	-9.22946
▁Spiegel	-9.23567
lich	-9.23645
▁Klassenzimmer	-9.23883
▁Mobiltelefon	-9.23883
▁Schaufel	-9.23883
▁beugt	-9.23883
▁winkt	-9.23886
▁Schlange	-9.23887
▁Schiedsrichter	-9.23896
▁Einkaufswagen	-9.23918
▁Erde	-9.23956
▁Footballspieler	-9.23981
▁setzt	-9.24024
▁Be	-9.24027
▁ziehen	-9.24093
▁Stiefeln	-9.24143
▁Bein	-9.24803
▁Roller	-9.25038
▁Geige	-9.25382
▁Surfbrett	-9.26118
▁Zimmer	-9.26383
▁Felswand	-9.26384
▁Schlitten	-9.26384
▁Halsband	-9.26386
▁Fleisch	-9.26396
▁fällt	-9.26397
▁dreht	-9.26461
ar	-9.26472
▁G	-9.26625
u	-9.2701
dessen	-9.27257
▁Badehose	-9.27545
▁hohe	-9.27604
▁Pferden	-9.27734
▁Schuhe	-9.27781
▁Cowboy	-9.27962
▁farbenfrohe	-9.28653
▁hellhäutige	-9.28699
ausrüstung	-9.28757
▁Höhe	-9.28947
▁fünf	-9.28947
▁zeigen	-9.28947
▁küssen	-9.28948
▁davor	-9.28949
▁Küste	-9.28949
▁linke	-9.28964
▁reiten	-9.29001
▁heraus	-9.29001
▁Tasse	-9.29188
▁Taschen	-9.29408
▁hellbrauner	-9.29409
▁Mikroskop	-9.29417
geschäft	-9.29518
▁Jacken	-9.30167
▁Schnauze	-9.31061
▁Kirche	-9.31579
▁redet	-9.31579
▁aussieht	-9.31579
▁erwachsene	-9.3158
▁Kaffee	-9.31582
▁Kai	-9.31587
▁Tanktop	-9.31592
▁Kreis	-9.31602
▁Loch	-9.31616
▁küsst	-9.31661
▁Seifenblasen	-9.31861
st	-9.31878
▁Cheerleader	-9.31976
▁was	-9.33153
▁bemalt	-9.33164
▁Akkordeon	-9.33166
Spiel	-9.33195
▁indische	-9.33245
▁Laptop	-9.33452
▁Pferde	-9.33585
▁Freunde	-9.33647
c	-9.34056
▁hellbraune	-9.34089
▁chinesische	-9.34098
▁schmutzige	-9.34218
▁Müll	-9.34279
▁Spaß	-9.34282
▁Ecke	-9.34294
▁Spielfeld	-9.343
▁offen	-9.34656
▁Pflanzen	-9.3466
blauen	-9.34923
spieler	-9.35329
▁kurze	-9.35478
▁hell	-9.35594
▁Bäume	-9.35716
▁Skateboarder	-9.35779
▁st	-9.35907
▁Gerüst	-9.36429
▁Büro	-9.3701
▁Karate	-9.37057
▁Stadion	-9.37059
▁Tochter	-9.37059
▁Teller	-9.3706
▁Teich	-9.3706
▁Mountainbike	-9.3706
▁Rennstrecke	-9.3706
▁Schwimmbrille	-9.3706
▁Handtasche	-9.37136
ge	-9.38057
froamerikanische	-9.38158
▁schönen	-9.38407
weg	-9.38497
▁Flasche	-9.38528
bar	-9.38567
▁Schultern	-9.38707
▁Fußballspiel	-9.38797
grünen	-9.39044
▁schöne	-9.3926
▁Caf	-9.39607
▁Oberteilen	-9.39743
uß	-9.39895
▁Haufen	-9.39917
▁kocht	-9.39917
▁Hula	-9.39917
▁bis	-9.3992
▁Kappe	-9.39957
▁gepflasterten	-9.40254
▁Tier	-9.4032
▁Reifen	-9.40386
▁asiatisch	-9.40921
▁Tischen	-9.40959
▁schwimmen	-9.41113
on	-9.41622
▁Koch	-9.42166
tisch	-9.42203
wagen	-9.42672
▁Balkon	-9.42858
▁felsige	-9.42858
▁umarmen	-9.42858
▁Klippe	-9.42858
▁entspannt	-9.42858
▁Couch	-9.42858
▁unterwegs	-9.42859
▁Landschaft	-9.42862
▁Parkbank	-9.42867
▁schaukelt	-9.42906
▁beleuchtete	-9.43508
▁hellen	-9.43734
▁Farben	-9.43811
▁Tänzer	-9.44378
▁Katze	-9.44402
T	-9.44409
gelben	-9.4463
▁Freunden	-9.44692
▁Bahn	-9.44754
▁Flugzeug	-9.45078
schwarzer	-9.4515
▁Steine	-9.4519
▁wunderschöne	-9.45238
Shirts	-9.45419
auch	-9.45681
▁Schlamm	-9.45887
▁Gasse	-9.45888
▁Trampolin	-9.45888
▁bedient	-9.45888
▁Blatt	-9.45888
▁damit	-9.45888
▁links	-9.45888
▁Hang	-9.45891
▁Sachen	-9.45892
▁Feldweg	-9.45967
▁Touristen	-9.45971
▁dunkler	-9.46152
▁Schutzhelmen	-9.46715
▁violetten	-9.4704
▁Maske	-9.47532
laden	-9.47593
▁Schüssel	-9.4762
▁Kopfhörer	-9.47643
z	-9.47715
▁Berge	-9.48199
▁Overall	-9.48213
▁ob	-9.48425
▁Flaggen	-9.48653
et	-9.48668
▁Licht	-9.48764
▁Winter	-9.48916
▁frisch	-9.48923
teil	-9.48933
▁New	-9.49013
veranstaltung	-9.49013
▁jongliert	-9.49013
▁hüpft	-9.49013
▁überfüllte	-9.49013
▁Springbrunnen	-9.49014
▁hinab	-9.49016
▁Skiern	-9.49019
▁verwendet	-9.49024
▁Strecke	-9.49056
▁gezogen	-9.49056
w	-9.49082
▁holt	-9.491
▁steigt	-9.49166
▁Skater	-9.49251
▁Helmen	-9.49402
▁Fahnen	-9.49689
al	-9.49794
nur	-9.49995
te	-9.50531
b	-9.51296
▁Objekt	-9.5132
▁Lastwagen	-9.51369
ork	-9.51569
▁Jugendliche	-9.51764
▁rechte	-9.51884
▁Marathon	-9.52235
▁schießt	-9.52239
▁Veranda	-9.52239
▁Mahlzeit	-9.52239
▁schnell	-9.52239
▁schüttelt	-9.52239
▁kauft	-9.5224
▁rasiert	-9.52285
▁rechts	-9.52422
▁Stoff	-9.53152
gruppe	-9.53427
▁durchs	-9.53603
▁Wüste	-9.54007
▁wander	-9.54198
▁Asiate	-9.54299
Hoop	-9.54566
▁Clown	-9.54776
▁hängen	-9.5502
hut	-9.55434
▁Zeit	-9.55519
▁Wurf	-9.55572
▁berührt	-9.55572
▁fotografieren	-9.55572
▁komplett	-9.55572
▁ruht	-9.55572
▁reparieren	-9.55572
▁barf	-9.55572
▁grillt	-9.55572
taucht	-9.55573
▁heben	-9.55575
▁bekommt	-9.55575
▁verfolgt	-9.5558
▁Cowboyhut	-9.55582
▁Sportler	-9.55585
▁bläst	-9.55589
▁Kopftuch	-9.55597
▁Lkw	-9.55647
▁Anzügen	-9.55752
che	-9.55813
▁hellblauen	-9.55931
▁Personengruppe	-9.55935
ich	-9.56048
innen	-9.56087
▁Getränke	-9.56273
▁D	-9.56459
re	-9.56587
▁Sieb	-9.56672
▁W	-9.56832
▁dritte	-9.57088
▁jemand	-9.57149
▁Teppich	-9.57445
▁Nase	-9.57485
▁Reiter	-9.57562
▁Instrumenten	-9.57769
▁b	-9.58153
▁Instrumente	-9.58169
▁Hockey	-9.5862
▁Ring	-9.58838
“-	-9.58892
▁Plastik	-9.59011
▁hockt	-9.5902
bereich	-9.59021
▁reinigt	-9.59021
▁Umzug	-9.59021
▁Bilder	-9.59044
▁Wettkampf	-9.59099
▁Schwimmer	-9.59695
▁brünette	-9.59974
▁Beinen	-9.60481
▁Tennisspieler	-9.60508
▁St	-9.60788
▁Zähne	-9.61134
▁Fußgänger	-9.61191
▁Finger	-9.61201
▁geschäftige	-9.61247
▁Im	-9.61344
▁Sänger	-9.62109
▁geparkt	-9.62318
sch	-9.62538
▁Schlag	-9.62579
▁Geschenk	-9.6259
▁Salto	-9.62592
▁stark	-9.62592
▁öffnet	-9.62592
▁Gebiet	-9.62592
▁Zunge	-9.62592
▁Asiatin	-9.62598
▁Bach	-9.62607
▁gefüllt	-9.62672
▁bauen	-9.62674
▁Sch	-9.6268
▁gucken	-9.6269
▁goldene	-9.62779
▁traditioneller	-9.62971
▁Hauses	-9.63163
▁einsame	-9.63165
▁schreit	-9.63245
▁ärmellose	-9.63278
▁Wasserfall	-9.63622
▁Kerl	-9.64155
▁Asiaten	-9.64239
iert	-9.6481
▁Sitzen	-9.64934
▁Fahrräder	-9.64942
stand	-9.65752
schwarzen	-9.65832
ft	-9.66046
▁Hals	-9.66287
▁Schlauch	-9.66294
▁Abend	-9.66295
▁Geld	-9.66295
▁aufblasbare	-9.66296
▁untersucht	-9.66296
▁wäscht	-9.66296
▁befestigt	-9.66296
▁Kurve	-9.66296
▁einzelne	-9.66296
▁kann	-9.66296
▁Straßenkünstler	-9.663
▁Lederjacke	-9.66317
▁Winterkleidung	-9.66335
▁Ort	-9.66423
▁Wein	-9.6643
▁Tunnel	-9.66446
▁schneiden	-9.66478
▁steigen	-9.66578
▁Hockeyspieler	-9.66805
▁bunt	-9.66809
rad	-9.67009
▁glücklich	-9.67726
▁Teil	-9.68274
▁wurde	-9.68684
▁geschlossene	-9.68885
Fahrer	-9.69262
▁Steinen	-9.69485
kostüm	-9.69558
gen	-9.69786
▁umher	-9.69978
▁verkleidet	-9.70005
▁Baumstamm	-9.70142
▁Terrasse	-9.70142
▁entfernt	-9.70142
▁übt	-9.70142
▁Kuh	-9.70143
▁kickt	-9.70144
▁Tuch	-9.70167
▁Passanten	-9.70194
▁gießt	-9.70195
▁Ausrüstung	-9.70298
▁beieinander	-9.70379
▁gelegt	-9.70471
zu	-9.70549
▁Bullen	-9.70587
brauner	-9.71056
▁N	-9.71596
▁Teams	-9.71755
▁schlafen	-9.72137
▁nachde	-9.73349
at	-9.73618
▁Becher	-9.74138
▁Bräutigam	-9.74142
▁vollführt	-9.74142
▁üben	-9.74142
▁unterschiedlich	-9.74142
▁barfüßige	-9.74142
▁hölzerne	-9.74142
▁helfen	-9.74144
▁hinaus	-9.74148
▁Teleskop	-9.74162
▁Rollstuhl	-9.74164
▁hinterher	-9.74175
▁geworfen	-9.74198
▁bringt	-9.74268
▁kommen	-9.74417
▁Vor	-9.74596
▁darunter	-9.74713
▁Fahrer	-9.75094
▁nassen	-9.75123
ste	-9.75218
le	-9.75497
bahn	-9.75595
ur	-9.76118
ter	-9.76272
▁Da	-9.76554
▁Matte	-9.76778
▁weit	-9.76923
▁riesige	-9.76957
maschine	-9.77188
▁Spielen	-9.77289
▁gesäumte	-9.77375
▁Schuh	-9.77469
▁violette	-9.77524
▁Hindernis	-9.77583
platz	-9.7762
▁Gerät	-9.77767
▁Fotograf	-9.77773
▁Gelände	-9.77811
▁Jahrmarkt	-9.78254
▁Ziel	-9.78305
▁Kissen	-9.78308
▁Kapuzenpulli	-9.78308
▁Karren	-9.78308
▁Schäferhund	-9.78308
▁Theke	-9.78308
▁Neoprenanzug	-9.78309
▁benutzen	-9.78309
▁Rolltreppe	-9.78309
▁angelt	-9.78311
▁feiern	-9.78311
▁gezeigt	-9.78311
▁Turnhalle	-9.78312
▁heiße	-9.78313
▁Waldgebiet	-9.78314
▁konzentriert	-9.78316
▁Besen	-9.78317
▁Wäsche	-9.78323
▁Keyboard	-9.7833
▁paddelt	-9.78366
▁bewegt	-9.78366
▁gleitet	-9.78366
▁ringen	-9.78431
▁Jungs	-9.78438
▁fertig	-9.78457
be	-9.78554
▁I	-9.78574
▁geben	-9.78612
▁Verkehr	-9.79445
▁Ma	-9.7951
▁Seiten	-9.80361
▁vorbeigehen	-9.80806
sitz	-9.81122
▁Trommel	-9.81262
S	-9.81314
▁k	-9.81392
roten	-9.81588
▁Hochzeit	-9.82259
▁Ballon	-9.82365
änner	-9.82645
hemd	-9.82649
▁Gegner	-9.82656
▁Gemälde	-9.82656
▁Hürde	-9.82656
▁Stapel	-9.82656
▁Tennisschläger	-9.82656
▁Jockey	-9.82656
▁Motocross	-9.82656
▁Trägerhemd	-9.82656
▁Weihnachtsbaum	-9.82656
▁Flughafen	-9.82656
▁Nahaufnahme	-9.82657
▁gelehnt	-9.82657
▁lehnen	-9.82657
▁Gewand	-9.82659
▁Heu	-9.8266
▁Musikinstrument	-9.82661
▁BM	-9.82663
▁Auftritt	-9.82666
▁Mänteln	-9.82693
▁Handtuch	-9.82718
▁kehrt	-9.82727
▁Militär	-9.82776
▁sch	-9.83406
▁frei	-9.83543
▁Ge	-9.84064
▁bekleidete	-9.84132
▁Feuerwehr	-9.84327
▁Berges	-9.84509
▁stehende	-9.84579
▁Freund	-9.85423
tleren	-9.85552
▁Gegenstände	-9.85802
▁Blätter	-9.85814
▁Farbe	-9.85908
el	-9.85941
▁orientalische	-9.86036
▁Schwimm	-9.86183
▁Fallschirm	-9.86501
halle	-9.86557
mannschaft	-9.86644
▁Soldat	-9.86676
▁Hocke	-9.86699
▁Koffer	-9.87197
▁Projekt	-9.87198
▁Stirn	-9.87198
mantel	-9.87199
▁Brust	-9.87201
▁Fläche	-9.87202
▁Pfütze	-9.87202
▁steinige	-9.87202
▁Wohnzimmer	-9.87202
▁Schutzbrille	-9.87203
▁Kid	-9.87204
▁khakifarbene	-9.87204
weise	-9.87205
▁Weihnachtsmann	-9.87206
▁Gang	-9.87207
▁Laub	-9.8721
▁sechs	-9.87221
bekleidung	-9.87221
▁trainiert	-9.87225
▁jagen	-9.87225
▁Gelb	-9.87227
▁Bildschirm	-9.87253
▁Wandbild	-9.8726
▁schießen	-9.87265
setzen	-9.87278
▁Lehrer	-9.87303
▁gräbt	-9.87305
▁Herd	-9.87355
▁Brot	-9.87363
▁Handstand	-9.87367
▁Werbung	-9.87387
▁Gepäck	-9.87411
▁Studenten	-9.87476
▁lassen	-9.87555
▁folgt	-9.87594
▁kalten	-9.87749
▁jemanden	-9.87922
▁Fischer	-9.87994
▁fas	-9.88072
▁Mo	-9.88172
▁neue	-9.88296
stellen	-9.88559
alter	-9.88787
▁Hunden	-9.89237
▁lächelndes	-9.8972
ver	-9.90073
▁traditionelle	-9.90317
▁Baseballkappe	-9.90436
▁Spitze	-9.90528
zug	-9.90563
▁Orange	-9.90572
▁schaufel	-9.90775
▁Sees	-9.90791
feld	-9.91351
▁angezogen	-9.91361
▁Ohr	-9.91368
▁e	-9.91466
spiel	-9.91501
▁irgendeine	-9.91553
tasche	-9.91758
jacke	-9.91789
anzügen	-9.91872
▁Kampf	-9.91895
▁Feier	-9.9192
stühlen	-9.91949
▁Labor	-9.91963
▁Geschirr	-9.91963
▁Behälter	-9.91964
▁Bushaltestelle	-9.91964
▁Daumen	-9.91964
▁Eltern	-9.91964
▁Gassi	-9.91964
▁Klavier	-9.91964
▁Pfosten	-9.91964
▁Pärchen	-9.91964
▁Zuschauermenge	-9.91964
▁kochen	-9.91964
▁weint	-9.91964
▁baut	-9.91965
▁streichelt	-9.91966
▁dir	-9.91968
▁hinein	-9.91974
▁Kletterer	-9.91975
▁geblümte	-9.91988
▁Orchester	-9.91988
hilfe	-9.91996
▁Hütte	-9.91998
▁nähert	-9.92006
▁Stadtstraße	-9.92019
▁kahlköpfiger	-9.92023
▁hören	-9.92032
▁dicht	-9.92044
▁Drachen	-9.92059
▁bringen	-9.92078
▁runden	-9.92082
ekt	-9.92151
Backsteingebäude	-9.92295
▁Menschengruppe	-9.9243
▁steilen	-9.92542
mann	-9.9258
▁Ballons	-9.92901
▁warm	-9.92908
▁Rede	-9.92949
▁Schutz	-9.93031
▁Kunststücke	-9.93094
▁Füßen	-9.93216
einander	-9.93587
▁vorüber	-9.93913
▁Motor	-9.94074
▁bestehende	-9.94369
▁Sicherheits	-9.94696
Skateboardfahrer	-9.94968
▁gehende	-9.95228
▁stehenden	-9.95387
▁Bücher	-9.95468
▁Gold	-9.96411
▁w	-9.96665
▁Kunst	-9.96813
▁Saxophon	-9.96962
▁Dreadlocks	-9.96964
▁joggt	-9.96964
▁Schnurrbart	-9.96964
▁Einkaufszentrum	-9.96964
▁Hammer	-9.96965
▁scheinen	-9.96965
▁Skatepark	-9.96967
▁Steinmauer	-9.96971
▁Picknicktisch	-9.96983
▁Baseballmütze	-9.96994
▁Socken	-9.97072
▁Bahnsteig	-9.97078
▁auszu	-9.97124
▁zeichnet	-9.97158
geht	-9.97168
▁verkleidete	-9.97185
▁Fans	-9.97204
▁dunkelblaue	-9.97223
▁spritzt	-9.97265
▁Eingang	-9.97744
▁Kisten	-9.97929
▁Motorrädern	-9.98024
▁ent	-9.98418
▁Aus	-9.98446
▁Meeres	-9.98551
schild	-9.98665
▁z	-9.98768
▁Schule	-9.99015
▁Kopfhörern	-9.99218
▁tief	-9.99772
▁Kunstwerk	-9.99896
ker	-9.99909
auf	-10.0015
▁schwere	-10.0025
ach	-10.0033
tt	-10.0042
▁L	-10.0047
▁lachend	-10.0055
▁Graffitis	-10.0067
▁dicke	-10.0067
▁Kegel	-10.0077
▁Füße	-10.0086
▁Blume	-10.0088
Reifen	-10.0135
Schild	-10.0136
Gitarre	-10.0136
it	-10.0154
▁Bauch	-10.0155
▁Zahl	-10.0162
▁Trompete	-10.0166
haus	-10.0169
▁Lauf	-10.0176
▁Bau	-10.019
▁farbige	-10.0196
▁Brett	-10.0201
▁Baseballspiel	-10.0205
▁Ziegel	-10.0215
sammelt	-10.0217
anlage	-10.0221
köpfige	-10.0222
▁Anlegestelle	-10.0223
▁Körper	-10.0223
▁Nickerchen	-10.0223
▁Nähmaschine	-10.0223
▁Sanddüne	-10.0223
▁ländliche	-10.0223
▁rudert	-10.0223
▁Hinterhof	-10.0223
▁Geldbörse	-10.0223
▁schwach	-10.0223
▁Out	-10.0223
▁Straßenhändler	-10.0223
▁Bowlingbahn	-10.0223
▁beschäftigt	-10.0223
▁schwarzhaarige	-10.0225
▁Kreuzung	-10.0225
▁Rennwagen	-10.0226
▁lockige	-10.0226
▁Esel	-10.0228
▁vorbeifährt	-10.0229
▁Ver	-10.0231
▁Stier	-10.0232
▁Plakat	-10.0234
▁Bahnhof	-10.0235
▁Wasserski	-10.0237
▁Wettbewerb	-10.0239
▁Bekleidung	-10.0242
▁verschieden	-10.025
▁Trainings	-10.0256
▁langhaariger	-10.0261
▁Zeichen	-10.0283
▁Stift	-10.0284
▁Luftballons	-10.0284
▁Schlagzeuger	-10.0287
▁silbernen	-10.0331
▁Restaurants	-10.0421
▁Typen	-10.0423
ein	-10.0436
▁Schaufenster	-10.0453
▁beigefarbene	-10.0485
▁O	-10.0487
E	-10.0495
gt	-10.0564
▁Sonnenbrillen	-10.0585
▁Man	-10.0595
▁dunkle	-10.0595
▁Getränken	-10.0596
▁ausgestreckte	-10.0597
▁Dinge	-10.0625
▁Angelrute	-10.0625
▁Softball	-10.0645
eiter	-10.0647
▁Speisen	-10.0683
▁Verkauf	-10.0686
▁Gewehr	-10.0686
▁Pier	-10.0689
ä	-10.069
reich	-10.0703
bildschirm	-10.0705
▁Er	-10.0713
treten	-10.0718
ische	-10.0722
fläche	-10.074
▁daneben	-10.0755
▁Topf	-10.0778
▁Kapuze	-10.0778
▁Balken	-10.0778
▁Flüssigkeit	-10.0778
▁Moped	-10.0778
▁flauschige	-10.0778
▁können	-10.0778
▁marschiert	-10.0778
▁passende	-10.0778
▁Klettergerüst	-10.0778
▁verheiratete	-10.0778
Fußgängerüberweg	-10.0778
▁Teig	-10.0778
▁blondhaarige	-10.0778
▁Lied	-10.0778
▁runter	-10.0778
▁Dreck	-10.0778
▁anhat	-10.0778
▁berühren	-10.0778
▁Bowlingkugel	-10.0778
▁Chor	-10.0778
▁Schwimmweste	-10.0778
▁Puck	-10.0779
▁Strohhut	-10.0779
▁herab	-10.0779
▁Mittag	-10.078
▁Bowling	-10.078
▁bearbeitet	-10.078
▁Bänken	-10.0783
markt	-10.0785
▁eingezäunte	-10.0786
▁Arena	-10.0791
▁gehalten	-10.0793
▁Rädern	-10.0793
▁amüsieren	-10.0807
▁Rucksäcken	-10.0814
▁Wänden	-10.0822
v	-10.0827
▁Fotografen	-10.0851
▁leicht	-10.0858
▁Traktor	-10.0875
iger	-10.0877
▁anzu	-10.0913
band	-10.0945
▁Regenschirmen	-10.0953
▁ausgestreckt	-10.0964
▁frische	-10.0967
▁h	-10.0976
ion	-10.1066
O	-10.1071
▁Outfits	-10.1097
rennen	-10.1112
▁Afroamerikaner	-10.1122
▁Feuerwehrm	-10.1141
hosen	-10.1144
park	-10.1155
mütze	-10.1227
▁Gewässers	-10.1238
▁Rennauto	-10.1268
▁tätowierte	-10.1304
▁Gitarrist	-10.1306
▁Skulptur	-10.1309
▁Zeitschrift	-10.1311
straße	-10.133
ben	-10.1338
fahren	-10.1343
▁Leder	-10.1364
▁Weihnachts	-10.1366
▁Zement	-10.1366
show	-10.1366
▁Bluejeans	-10.1366
▁Gespräch	-10.1366
▁Plattform	-10.1366
▁Sandstrand	-10.1366
▁Schubkarre	-10.1366
▁Silhouette	-10.1366
▁Tafel	-10.1366
▁begutachtet	-10.1366
▁gebeugt	-10.1366
▁gegenseitig	-10.1366
▁glatzköpfige	-10.1366
▁nächste	-10.1366
▁schwenkt	-10.1366
▁sucht	-10.1366
▁steckt	-10.1366
▁füllt	-10.1366
▁Surfboard	-10.1367
▁Becken	-10.1367
▁Abendessen	-10.1367
▁Schwimmbad	-10.1367
▁hart	-10.1367
▁Grün	-10.1368
▁Gewänder	-10.1368
▁Kies	-10.1369
▁richtet	-10.1369
▁Schlafanzug	-10.137
▁Fußballfeld	-10.1373
▁brennende	-10.1375
▁kaut	-10.1376
▁rast	-10.1376
▁Rollerblades	-10.138
▁treffen	-10.1391
▁Kerzen	-10.1404
ähnliche	-10.1434
doo	-10.1437
▁flachen	-10.1455
▁Co	-10.157
▁seltsame	-10.1622
▁Treppen	-10.1647
▁Turnerin	-10.1664
▁Turner	-10.1696
verkäufer	-10.1737
▁glückliche	-10.1752
▁halb	-10.1773
or	-10.1794
▁d	-10.1802
us	-10.1837
▁Motorroller	-10.1839
▁Robe	-10.1839
▁Grimasse	-10.1853
▁Fahne	-10.1856
as	-10.1877
leicht	-10.1879
▁Werkzeug	-10.1901
Oberteil	-10.1905
Hemd	-10.1906
di	-10.1909
▁Ab	-10.1922
braunen	-10.1927
▁entgegen	-10.1939
▁Sängerin	-10.1952
kleid	-10.1956
▁Unter	-10.1958
▁Bike	-10.1963
▁geöffnet	-10.1979
▁Dies	-10.198
▁Ton	-10.1982
▁Tarn	-10.1984
▁Verkäufer	-10.1986
findet	-10.1989
▁Taucher	-10.199
▁kahl	-10.1991
▁LKW	-10.1991
▁London	-10.1991
▁Lächeln	-10.1991
▁Löffel	-10.1991
▁Plastiktüte	-10.1991
▁altmodische	-10.1991
▁entspannen	-10.1991
▁japanische	-10.1991
▁kopfüber	-10.1991
▁silberfarbene	-10.1991
▁trainieren	-10.1991
▁Waschsalon	-10.1992
▁rollt	-10.1992
▁Kalb	-10.1992
▁will	-10.1992
▁parkt	-10.1992
▁Wettrennen	-10.1992
▁Brandung	-10.1992
▁noch	-10.1992
▁Frisbeescheibe	-10.1993
▁untersuchen	-10.1993
▁Blumenmuster	-10.1994
▁Hilfe	-10.1995
▁dazu	-10.1995
▁schweißt	-10.1995
▁Umhang	-10.1995
▁marschieren	-10.1995
▁Fahrt	-10.1995
▁Sportwagen	-10.1995
▁Feuerwehrmann	-10.1995
wirbelt	-10.1996
▁planscht	-10.1996
▁fegt	-10.1998
▁statt	-10.2
▁beißt	-10.2
▁Jeansjacke	-10.2
▁Wasserflasche	-10.2001
▁Grasfläche	-10.2002
▁Mitglieder	-10.2004
▁füttert	-10.2006
▁Messer	-10.2014
▁Röcken	-10.2014
▁Sitz	-10.2016
▁Spielkleidung	-10.202
▁bewölkten	-10.2032
A	-10.2035
isch	-10.2042
▁Palmen	-10.205
▁aufgestellt	-10.2054
▁acht	-10.2057
▁volle	-10.2088
seite	-10.2099
▁vorne	-10.2099
▁farbenfroher	-10.2125
bau	-10.2166
▁Schwert	-10.2168
und	-10.218
▁Herren	-10.2195
▁fliegende	-10.2198
ier	-10.221
▁verlassen	-10.2212
dem	-10.2228
▁wandern	-10.2259
▁Tricks	-10.2263
ast	-10.2286
▁Start	-10.2319
▁Geschäften	-10.2348
anz	-10.2402
▁fliegen	-10.2464
raum	-10.2477
förmige	-10.2482
elt	-10.2491
▁beleuchtet	-10.251
hose	-10.2513
▁Vögel	-10.2516
▁Motorräder	-10.2521
▁Stufe	-10.2523
up	-10.2524
▁Schafe	-10.254
gerät	-10.2544
▁Taxi	-10.2566
▁ähnlich	-10.2582
rischen	-10.2583
fahrt	-10.2585
▁Balls	-10.2589
▁überprüf	-10.2606
▁langhaarige	-10.261
▁Beine	-10.2612
ber	-10.2614
▁selbst	-10.2618
ball	-10.2631
rau	-10.2635
▁breite	-10.2641
▁Renn	-10.2643
bild	-10.2648
wendet	-10.2656
▁Feder	-10.2657
linie	-10.2657
▁Dorf	-10.2658
▁Bandana	-10.2658
▁Floß	-10.2658
▁Händler	-10.2658
▁Klassenraum	-10.2658
▁Mülltonne	-10.2658
▁diskutieren	-10.2658
▁joggen	-10.2658
▁nieder	-10.2658
▁scheinbar	-10.2658
▁starren	-10.2658
▁übergewichtige	-10.2658
▁ausgebreitet	-10.2658
kurs	-10.2658
▁Kreide	-10.2658
▁reinigen	-10.2658
▁Piste	-10.2658
▁Moment	-10.2658
▁näht	-10.2658
▁Mittagessen	-10.2658
▁Ziegelmauer	-10.2658
▁Bogen	-10.2658
▁Reifenschaukel	-10.2659
▁verlässt	-10.2659
▁festhält	-10.2659
▁bückt	-10.2659
▁Köche	-10.2659
▁verdeckt	-10.2659
▁bespritzt	-10.2659
▁Tribüne	-10.2659
▁Violine	-10.2659
▁bekommen	-10.2659
▁Maulkorb	-10.266
▁Flur	-10.2661
▁Kran	-10.2662
▁Badewanne	-10.2662
▁jubeln	-10.2662
▁wischt	-10.2662
▁Feuerwehrleute	-10.2662
▁Fahrgeschäft	-10.2662
▁treibt	-10.2662
▁befahrene	-10.2662
▁Ast	-10.2662
zahl	-10.2663
▁Elefanten	-10.2664
▁bewundert	-10.2664
▁ausgestellt	-10.2665
▁pink	-10.2667
▁Waldweg	-10.2668
▁Torhüter	-10.2669
▁abend	-10.2671
▁dekoriert	-10.2673
▁Poster	-10.2675
▁Sportkleidung	-10.2675
▁Flöte	-10.2681
träger	-10.2688
▁malen	-10.2691
lt	-10.2697
▁Büschen	-10.2702
▁ober	-10.2708
▁C	-10.2715
▁Tee	-10.2717
▁engen	-10.2727
▁Laufen	-10.2727
spielzeug	-10.2732
▁Ohren	-10.2738
über	-10.2746
▁Welpen	-10.2769
▁Karten	-10.2775
▁Schildern	-10.2779
▁Baumes	-10.2779
tlich	-10.284
▁hübsche	-10.2853
▁Schleife	-10.2865
▁Tanzen	-10.287
▁weiter	-10.2885
▁Snowboardfahre	-10.2913
▁Cowboys	-10.2921
▁Außen	-10.2941
▁Schirmen	-10.2959
▁dünne	-10.2965
odium	-10.2973
▁stehend	-10.2985
▁Flaschen	-10.2996
▁Videospiel	-10.2998
▁Kleider	-10.3015
ort	-10.3049
▁Produkte	-10.3069
sten	-10.3087
do	-10.3088
▁Ba	-10.3118
▁Rück	-10.3128
▁bekleidet	-10.3131
team	-10.3155
▁Tennisspielerin	-10.3158
▁silberne	-10.3235
▁verschneite	-10.3238
▁Kiste	-10.3245
▁nass	-10.3253
▁Süßigkeiten	-10.3265
Eishockeyspieler	-10.3266
▁Schiff	-10.3272
drückt	-10.3272
▁Deck	-10.3284
▁Stangen	-10.3285
▁Einrad	-10.3292
helm	-10.3293
▁nah	-10.33
ne	-10.3303
land	-10.3311
▁Sonnenschirm	-10.3313
▁Rauch	-10.3338
arbeiter	-10.3342
ruhen	-10.3354
▁Kunststoff	-10.3372
▁Pfadfinder	-10.3372
▁aufmerksam	-10.3372
▁Bibliothek	-10.3372
▁Breakdance	-10.3372
▁Fernglas	-10.3372
▁Locken	-10.3372
▁Museum	-10.3372
▁Schmutz	-10.3372
▁Stehen	-10.3372
▁Tablett	-10.3372
▁Zöpfen	-10.3372
▁beginnt	-10.3372
▁drinnen	-10.3372
▁gleichzeitig	-10.3372
▁schlammige	-10.3372
▁uniformierte	-10.3372
▁örtliche	-10.3372
▁Schmuck	-10.3372
▁Innenstadt	-10.3372
▁Trainer	-10.3372
▁webt	-10.3372
▁feiert	-10.3372
▁bewegen	-10.3372
▁Badezimmer	-10.3373
▁Aufführung	-10.3373
▁gewickelt	-10.3373
▁hindurch	-10.3373
▁Stirnband	-10.3373
▁Krankenhaus	-10.3374
▁Akustikgitarre	-10.3374
▁Freu	-10.3374
▁Asiatinnen	-10.3374
küche	-10.3374
▁spielerisch	-10.3375
▁Marktplatz	-10.3377
▁landet	-10.3377
▁Streifen	-10.3378
▁leger	-10.3381
▁Show	-10.3383
▁Lager	-10.3383
▁Pitcher	-10.3384
▁vorbeigeht	-10.3386
▁geöffnete	-10.3387
▁Club	-10.3392
▁Fest	-10.3394
▁Kugel	-10.3396
▁entlanggeht	-10.3398
▁Radrennen	-10.3399
▁greifen	-10.3407
▁Rettungswesten	-10.3409
▁Ringer	-10.3424
▁Scheibe	-10.3436
ckt	-10.3438
▁Häusern	-10.344
▁abzu	-10.3443
▁Tauben	-10.345
▁Hocker	-10.3451
▁Decken	-10.3476
M	-10.3478
▁Volleyballspiel	-10.3481
▁ruhigen	-10.3489
▁Köpfen	-10.3492
▁Asiatische	-10.3512
▁Grimassen	-10.3534
▁Blättern	-10.3597
blau	-10.3625
▁lang	-10.3637
schen	-10.3653
enden	-10.3682
all	-10.3684
▁schlafende	-10.3685
ack	-10.3686
schau	-10.37
▁i	-10.3729
aus	-10.3744
▁einge	-10.3753
▁Fels	-10.3769
▁beladen	-10.3772
▁Golf	-10.3777
▁Hi	-10.3782
ü	-10.3797
▁gelbbraune	-10.3839
▁Sa	-10.3857
▁zubereitet	-10.386
▁Profi	-10.3876
▁aussehen	-10.3939
artige	-10.3949
fährt	-10.3949
fahrzeug	-10.396
gehen	-10.3984
▁Wange	-10.3993
▁Stöcke	-10.4001
▁Karte	-10.4003
▁Stühle	-10.4007
▁nasse	-10.4009
▁Roll	-10.4044
▁jede	-10.4048
▁Kamel	-10.4049
Station	-10.405
Zeichen	-10.4053
▁Ozean	-10.4053
▁Luftballon	-10.4056
licht	-10.4057
▁Handschuh	-10.4059
braune	-10.4071
▁Tattoo	-10.4075
▁Dudelsack	-10.408
co	-10.4083
trick	-10.4083
▁Figur	-10.4097
weil	-10.4122
▁Szene	-10.4123
▁Papiere	-10.4137
muster	-10.4138
buch	-10.4141
shorts	-10.4141
▁Natur	-10.4142
▁Anhänger	-10.4142
▁Strickmütze	-10.4142
▁Versammlung	-10.4142
▁Wakeboard	-10.4142
▁jubelt	-10.4142
▁Asien	-10.4142
▁Ballerina	-10.4142
▁Gymnastik	-10.4142
▁Inline	-10.4142
▁Vortrag	-10.4142
▁Werkstatt	-10.4142
▁sandige	-10.4142
▁Pudel	-10.4142
▁gemusterte	-10.4142
▁Laborkittel	-10.4142
▁Kettensäge	-10.4142
▁geschmückt	-10.4142
▁Bauarbeiten	-10.4142
▁grillen	-10.4142
▁Pferdeschw	-10.4142
▁Golfball	-10.4142
▁Marathonläufer	-10.4142
haube	-10.4142
▁Halstuch	-10.4142
▁bilden	-10.4142
▁Stern	-10.4143
▁gestikuliert	-10.4143
▁Modell	-10.4144
Gesichtsbemalung	-10.4144
▁Achterbahn	-10.4146
▁Film	-10.4146
▁Fänger	-10.4146
▁klatscht	-10.4146
▁brauen	-10.4149
▁Video	-10.4151
Sicherheitsweste	-10.4152
▁Inlineskates	-10.4152
▁Uhr	-10.4153
▁leckt	-10.4164
▁Maler	-10.4166
owie	-10.4173
statue	-10.4176
eben	-10.4176
▁graben	-10.4177
▁geschminkte	-10.4181
▁Turban	-10.4196
▁Biker	-10.4206
▁Hochzeitskleid	-10.4213
▁Cafe	-10.4233
▁eben	-10.4233
▁Spiels	-10.4234
▁Polizei	-10.4245
▁Schilder	-10.4249
▁besucht	-10.4258
▁Bällen	-10.4276
▁p	-10.4277
au	-10.4295
▁Netze	-10.4297
▁streich	-10.4316
farbigen	-10.4321
ol	-10.4332
▁formelle	-10.4373
assen	-10.4377
▁Fingern	-10.4454
wand	-10.4459
▁Hotel	-10.4461
la	-10.4465
▁Kunstwerke	-10.4497
waschen	-10.4498
fest	-10.4516
▁knien	-10.4551
▁Seilen	-10.4601
bereiten	-10.466
▁vorbereitet	-10.4662
▁seichte	-10.4675
ut	-10.4733
werk	-10.4738
▁fallen	-10.4768
man	-10.4781
▁wate	-10.4827
Kostüm	-10.4829
▁Linie	-10.4832
▁Kette	-10.4832
▁Gürtel	-10.4834
▁violett	-10.4835
▁Knie	-10.4835
▁Bälle	-10.4836
▁Köpfe	-10.4836
▁Welpe	-10.4837
F	-10.4838
▁Hüte	-10.4842
halten	-10.4844
▁Zu	-10.4854
stellt	-10.4855
gelb	-10.486
lichen	-10.4861
▁Säugling	-10.4876
▁Schul	-10.4878
▁Heißluftballon	-10.4883
Hut	-10.4889
▁Hoch	-10.489
grauen	-10.4892
▁Tiere	-10.4895
li	-10.4908
nzende	-10.4916
▁Herz	-10.492
▁Bewegung	-10.492
▁Tätowierung	-10.4921
tritt	-10.4921
ce	-10.4938
▁Rugby	-10.495
▁Schach	-10.4962
▁Straßenmusik	-10.4963
▁Kindes	-10.4963
sam	-10.4963
fenster	-10.4967
▁Beleuchtung	-10.4968
▁glä	-10.497
▁Herbst	-10.4972
▁Kreuz	-10.4972
▁Konferenz	-10.4974
▁Hafen	-10.4975
▁Operation	-10.4975
▁Lacrosse	-10.4975
▁Früchte	-10.4975
▁Kellner	-10.4975
▁Nebel	-10.4975
▁Teilnehmer	-10.4975
▁Treppenstufen	-10.4975
▁Vergnügungspark	-10.4975
▁Während	-10.4975
▁beisammen	-10.4975
▁paddeln	-10.4975
▁sauber	-10.4975
▁schnitzt	-10.4975
▁tropische	-10.4975
▁trübe	-10.4975
▁aufgereiht	-10.4975
▁deutsche	-10.4975
▁prüft	-10.4975
▁kümmert	-10.4975
▁Lieferwagen	-10.4975
▁Rikscha	-10.4975
▁Waschbecken	-10.4975
▁angeboten	-10.4975
▁lernt	-10.4975
▁Board	-10.4975
▁DJ	-10.4975
▁Spaziergang	-10.4975
▁Apfel	-10.4975
▁tut	-10.4975
▁schützen	-10.4975
▁ansieht	-10.4975
▁USA	-10.4975
▁begleitet	-10.4975
▁Warte	-10.4975
▁Badeanzügen	-10.4975
▁Stahl	-10.4976
▁Haltung	-10.4976
▁Home	-10.4976
▁Arzt	-10.4976
▁elektrische	-10.4976
▁Schulkinder	-10.4976
▁knall	-10.4976
▁Theater	-10.4976
▁Betonwand	-10.4976
▁herumstehen	-10.4977
▁abgestellt	-10.4977
▁Sprungbrett	-10.4977
Maschendrahtzaun	-10.4978
▁Part	-10.4978
▁Sicht	-10.4978
▁Fabrik	-10.4979
▁reflektierende	-10.498
▁packt	-10.4983
▁Freundin	-10.4983
▁Wasserrutsche	-10.4984
▁Fecht	-10.4985
▁schmale	-10.4985
▁Autobahn	-10.4985
▁Fußballteam	-10.4986
▁Einkäufer	-10.4986
▁Sandwich	-10.4987
▁Banner	-10.4987
▁Tänzerin	-10.4987
▁Laster	-10.4989
block	-10.4991
▁Knöpfen	-10.4994
▁putzen	-10.4995
▁gemacht	-10.4995
▁suchen	-10.4996
▁legen	-10.5005
▁gepunkteten	-10.5006
▁albern	-10.5006
▁Mitarbeiter	-10.5011
▁mehrfarbige	-10.5024
▁Dreirad	-10.5025
▁Tätowierungen	-10.503
▁Gesichtern	-10.5041
▁Klasse	-10.5047
▁Kameras	-10.5055
ot	-10.5059
▁Geräten	-10.5087
ig	-10.5102
korb	-10.5105
▁aneinander	-10.5114
▁vordere	-10.5127
▁La	-10.5145
blaue	-10.5175
▁bemalten	-10.5191
▁orientalisch	-10.5196
kampf	-10.5198
zeug	-10.5203
stuhl	-10.5216
▁Kleinkinder	-10.5218
▁sei	-10.5234
ine	-10.5244
▁Türen	-10.5246
▁Trommeln	-10.5253
och	-10.529
ic	-10.5294
▁V	-10.5296
▁Rohr	-10.5303
glas	-10.5312
tanz	-10.5313
ke	-10.5335
ring	-10.5353
I	-10.5363
decke	-10.5363
▁Schüsseln	-10.5367
▁fröhlich	-10.5378
acht	-10.5411
▁Ei	-10.5424
▁aufgeregt	-10.5476
▁Re	-10.5479
▁Kerle	-10.5486
stück	-10.5505
▁Dr	-10.5506
schieben	-10.5516
D	-10.5522
▁Radfahrern	-10.5529
▁fremde	-10.5563
▁altes	-10.5585
landschaft	-10.5589
▁spä	-10.561
▁Mützen	-10.5618
brett	-10.5634
falls	-10.5654
ak	-10.5664
▁schreiben	-10.5671
end	-10.5693
sehen	-10.5722
▁Waffe	-10.573
▁Einkaufstasche	-10.5741
farbene	-10.5743
▁flache	-10.5747
▁Auge	-10.575
po	-10.5753
schaut	-10.5772
führen	-10.5776
wohl	-10.578
bedeckte	-10.5792
▁Bad	-10.5793
P	-10.5794
V	-10.5794
▁Karton	-10.5796
mannschaften	-10.5797
Outfit	-10.5797
Geschäft	-10.5798
ler	-10.5816
schlag	-10.582
▁Schlauchboot	-10.5822
x	-10.5831
ert	-10.5835
rampe	-10.5836
▁Ka	-10.5838
▁Alter	-10.5839
▁ruhig	-10.5839
▁gold	-10.5843
▁Wette	-10.5847
▁Un	-10.5849
▁Wach	-10.5851
▁Sonnen	-10.5856
▁Saxofon	-10.5868
skulptur	-10.5875
tuch	-10.5875
stürzt	-10.5876
lose	-10.5876
boden	-10.5879
▁Ballett	-10.588
▁Nah	-10.5881
oberteil	-10.5883
▁Flug	-10.5883
▁Bordstein	-10.5884
wettbewerb	-10.5884
▁Erzeugnisse	-10.5884
▁Ureinwohner	-10.5884
uarterback	-10.5884
▁Beachvolleyball	-10.5884
▁Händchen	-10.5884
▁Pizza	-10.5884
▁Rahmen	-10.5884
▁Telefonzelle	-10.5884
▁Türöffnung	-10.5884
▁Vorrichtung	-10.5884
▁Webstuhl	-10.5884
▁Zylinder	-10.5884
▁attraktive	-10.5884
▁möglicherweise	-10.5884
▁präsentiert	-10.5884
▁rückwärts	-10.5884
▁sammeln	-10.5884
▁serviert	-10.5884
▁staubige	-10.5884
▁vergnügt	-10.5884
▁John	-10.5884
▁Pink	-10.5884
▁Rosa	-10.5884
▁gefleckte	-10.5884
▁gesprungen	-10.5884
▁schwingen	-10.5884
▁schütteln	-10.5884
▁verteilt	-10.5884
▁Felsvorsprung	-10.5884
Baseballschläger	-10.5884
▁Lagerfeuer	-10.5884
▁unordentlich	-10.5884
▁Lasso	-10.5884
▁Smoking	-10.5884
▁City	-10.5884
▁Cello	-10.5884
▁Erdhügel	-10.5884
▁Tracht	-10.5884
▁Vorderseite	-10.5884
▁Untergrund	-10.5884
▁Ofen	-10.5884
▁moderne	-10.5884
▁Aussicht	-10.5884
▁Kante	-10.5884
▁Redner	-10.5884
▁Dock	-10.5884
▁Karussell	-10.5885
Krankenschwester	-10.5885
▁Horn	-10.5885
▁Namen	-10.5885
▁besteht	-10.5885
▁grauhaarige	-10.5885
▁abgeworfen	-10.5885
▁Fußballdress	-10.5885
▁Brettspiel	-10.5885
ansammlung	-10.5885
▁Holzbank	-10.5885
▁Acht	-10.5886
▁Schlagmann	-10.5886
▁schlecht	-10.5886
▁Geländewagen	-10.5886
▁teilnehmen	-10.5886
▁Obststand	-10.5888
▁Experiment	-10.5889
▁Kragen	-10.5889
▁transportiert	-10.5889
▁schwebt	-10.5889
▁rudern	-10.5889
▁Computern	-10.589
▁Fass	-10.589
▁Stab	-10.5891
▁Sieg	-10.5891
▁Lippen	-10.5892
füllen	-10.5892
▁Kon	-10.5892
▁Gericht	-10.5893
▁Eiscreme	-10.5895
▁angebracht	-10.5896
ligen	-10.5896
▁Stunt	-10.5897
▁Ruder	-10.5901
▁Perlen	-10.5905
▁Top	-10.5905
▁Must	-10.5906
▁treiben	-10.5906
▁Boxer	-10.5908
ößt	-10.5908
▁Post	-10.5911
▁geschnitten	-10.5917
▁Gläsern	-10.5918
▁Turnschuhen	-10.5918
▁bietet	-10.5919
▁Gehen	-10.592
gespannt	-10.5927
▁Röhre	-10.5928
▁langärmeligen	-10.5931
rmel	-10.5947
tet	-10.5955
strecken	-10.5959
▁Al	-10.5988
▁zweite	-10.5995
▁Bade	-10.5995
cht	-10.5996
▁Fahrrads	-10.5998
▁Wa	-10.6007
▁Säulen	-10.6013
▁ungewöhnliche	-10.6016
the	-10.6033
▁Booten	-10.6037
▁schlafend	-10.6041
rlich	-10.6054
▁niedrige	-10.6057
laufen	-10.6066
▁Box	-10.6069
stellung	-10.6088
ble	-10.6094
▁Clowns	-10.6132
▁Groß	-10.6135
inde	-10.6159
▁Orangen	-10.6166
▁de	-10.6167
▁Gegenständen	-10.6177
▁Laptops	-10.6191
ll	-10.6201
ance	-10.6214
halt	-10.6246
▁Fußgängern	-10.626
Straßenverkäufer	-10.6271
ka	-10.6275
tag	-10.6309
▁Helme	-10.6312
▁Fischen	-10.6324
▁Mar	-10.6423
ist	-10.6452
se	-10.6474
rock	-10.6501
▁Windhund	-10.6522
ziehen	-10.6549
▁Kricket	-10.655
gang	-10.6561
ei	-10.6584
▁Paare	-10.663
▁soll	-10.6633
druck	-10.666
▁Lebensmitteln	-10.6702
▁Schau	-10.6727
▁Kasse	-10.6727
▁Halskette	-10.6736
▁Ente	-10.674
▁Säule	-10.6744
gelegt	-10.6744
▁Pflanze	-10.6754
▁Lade	-10.6764
▁Reis	-10.6775
▁Puppe	-10.6776
▁Le	-10.6778
▁Eishockey	-10.678
▁goldfarbene	-10.6781
läuft	-10.6786
▁farbenfroh	-10.6788
▁Handschuhe	-10.679
folgt	-10.6794
Scheibe	-10.6794
U	-10.6797
Kleidung	-10.6798
schlafen	-10.68
zieht	-10.6801
▁Schnur	-10.6817
▁beige	-10.6818
▁Shirts	-10.683
▁amüsier	-10.6831
ation	-10.6832
▁geschminkt	-10.6835
▁J	-10.6837
▁versch	-10.6844
foto	-10.6846
▁spanische	-10.6846
schutz	-10.6856
▁Skate	-10.6859
▁regne	-10.6864
scheibe	-10.6877
boot	-10.688
behälter	-10.6882
▁Banjo	-10.6883
schminkt	-10.6883
▁Bambus	-10.6884
▁College	-10.6884
wissenschaftlich	-10.6884
digkeit	-10.6884
ffentlichkeit	-10.6884
▁Ampel	-10.6884
▁Auslage	-10.6884
▁Axt	-10.6884
▁Bergsteiger	-10.6884
▁Dämmerung	-10.6884
▁Fontäne	-10.6884
▁Hoodie	-10.6884
▁Käse	-10.6884
▁Leggings	-10.6884
▁Obdachlose	-10.6884
▁Olympische	-10.6884
▁Pilot	-10.6884
▁Pullunder	-10.6884
▁Schaulustige	-10.6884
▁Stelzen	-10.6884
▁Verteidiger	-10.6884
▁Zahn	-10.6884
▁bewaldete	-10.6884
▁elektronische	-10.6884
▁erhobene	-10.6884
▁medizinische	-10.6884
▁militärische	-10.6884
▁neugeborene	-10.6884
▁schneit	-10.6884
▁trifft	-10.6884
schnapp	-10.6884
▁Demonstrant	-10.6884
▁Hüfte	-10.6884
▁ließt	-10.6884
▁bockende	-10.6884
▁kratzt	-10.6884
▁Reklametafel	-10.6884
▁Strumpfhose	-10.6884
▁abgebildet	-10.6884
▁erklimmen	-10.6884
▁jeweil	-10.6884
▁verwenden	-10.6884
▁fischt	-10.6884
amens	-10.6884
▁stolz	-10.6884
▁Klappstuhl	-10.6884
▁Freizeitpark	-10.6884
▁Gipfel	-10.6884
▁Esstisch	-10.6884
▁löschen	-10.6884
▁formt	-10.6884
▁Waschmaschine	-10.6884
▁mischt	-10.6884
▁festgebunden	-10.6885
▁unterrichtet	-10.6885
▁Afrikaner	-10.6885
▁Ziegelwand	-10.6885
▁Essensstand	-10.6885
▁Mülleimer	-10.6885
▁Bruder	-10.6885
▁blocken	-10.6885
▁Bord	-10.6885
▁Ziellinie	-10.6885
▁Unterhemd	-10.6885
▁Schritt	-10.6885
▁Turm	-10.6885
▁Steintreppe	-10.6885
▁Metallstange	-10.6886
▁Landstraße	-10.6886
▁Holzzaun	-10.6886
▁Straßenseite	-10.6887
▁passiert	-10.6887
▁filmt	-10.6887
▁Holzboden	-10.6888
▁rutschen	-10.6888
▁fischen	-10.6888
▁Aufzug	-10.6889
▁Kürbis	-10.6889
▁Namensschild	-10.6889
▁Jeep	-10.6889
▁Leinwand	-10.6889
▁Swimmingpool	-10.6889
heruntergekommen	-10.689
▁kauert	-10.6891
▁US	-10.6892
bändern	-10.6893
▁Khakihose	-10.6893
▁Frisur	-10.6899
▁Präsentation	-10.6899
▁Feuerwehrauto	-10.6899
▁gebaut	-10.69
af	-10.6901
garten	-10.6902
▁Tomaten	-10.6907
▁gesehen	-10.691
▁Kostüme	-10.6914
▁größeren	-10.6919
▁bräunliche	-10.692
▁Kilt	-10.6922
▁Gleisen	-10.6922
nehmen	-10.6924
▁einfach	-10.6925
▁Rugbyspieler	-10.693
▁Klein	-10.6933
▁Sommer	-10.6949
▁streichen	-10.6956
nterwäsche	-10.696
▁Körben	-10.6967
▁Maschinen	-10.6972
▁Gitarristen	-10.698
▁bedeckte	-10.698
▁nasser	-10.6982
▁Hallen	-10.6998
ri	-10.6999
▁Porträt	-10.7043
▁verzierte	-10.7044
ickt	-10.7061
is	-10.707
▁Schaf	-10.707
▁Stöcken	-10.7072
▁liegenden	-10.7084
itte	-10.7095
▁Handwerk	-10.7099
ve	-10.7114
Schutzausrüstung	-10.7128
▁Bootes	-10.7157
da	-10.717
▁Overalls	-10.7178
ntfern	-10.7189
os	-10.7195
handschuh	-10.7206
▁oranger	-10.7209
▁Fischernetz	-10.7209
ad	-10.7236
erkun	-10.7243
ller	-10.7295
▁meiste	-10.7301
age	-10.7312
▁Bildern	-10.7317
▁ange	-10.7322
maske	-10.7338
ett	-10.7343
C	-10.7359
▁fröhliche	-10.7374
▁Richtungen	-10.7398
▁Segelboot	-10.7429
▁bedruckte	-10.7434
▁begeistert	-10.7464
▁Mit	-10.7477
▁We	-10.7495
▁Pe	-10.7557
▁lachende	-10.757
schwarz	-10.7579
ien	-10.7587
▁Am	-10.7591
zelt	-10.7627
▁He	-10.7636
R	-10.7679
▁Eimern	-10.7681
▁Ziegelsteine	-10.7687
hinter	-10.7695
konstruktion	-10.7708
bad	-10.7726
▁Angel	-10.7731
▁dunkel	-10.7732
▁l	-10.7734
essen	-10.7751
▁Fahrradhelm	-10.7764
sägt	-10.7773
▁Herrn	-10.778
ha	-10.779
eite	-10.7791
nd	-10.7797
pfad	-10.7805
art	-10.781
öse	-10.7818
voll	-10.7819
▁Tal	-10.7826
▁Kneipe	-10.7835
▁Aufnahme	-10.7842
▁Sessel	-10.7843
▁würde	-10.7847
▁Platte	-10.7847
▁Schachtel	-10.7853
▁steile	-10.7858
▁kalte	-10.7858
▁Lampe	-10.7861
▁gepflasterte	-10.7875
▁spring	-10.7885
Derby	-10.7899
▁Asiat	-10.7901
gerichtet	-10.7906
nimmt	-10.7907
steigen	-10.7907
zw	-10.7907
Mannschaft	-10.7909
werfen	-10.7927
▁Fische	-10.7928
▁spazier	-10.7932
▁Rollschuh	-10.7932
dach	-10.7933
▁Student	-10.7942
to	-10.795
▁Erd	-10.7964
▁Pfeil	-10.7967
▁fein	-10.7972
▁Mitglied	-10.7973
▁Hockeyspiel	-10.7975
▁Bohr	-10.7975
grün	-10.7983
▁Treppenhaus	-10.7985
rand	-10.7987
oga	-10.7988
▁bevor	-10.7991
flug	-10.7991
▁Ho	-10.7992
▁Flip	-10.7992
wurf	-10.7993
▁Einkaufs	-10.7994
▁Ober	-10.7994
▁Friseur	-10.7994
kräfte	-10.7995
▁Freiluft	-10.7995
▁Geschwi	-10.7995
▁muskul	-10.7995
▁Beutel	-10.7995
▁Halloween	-10.7995
▁Konstruktion	-10.7995
party	-10.7995
technik	-10.7995
vorrichtung	-10.7995
▁Begeisterung	-10.7995
▁Betrachter	-10.7995
▁Bündel	-10.7995
▁Flipflops	-10.7995
▁Hamburger	-10.7995
▁Irokesenschnitt	-10.7995
▁Kapuzenpullover	-10.7995
▁Mönch	-10.7995
▁Neugeborenes	-10.7995
▁Plate	-10.7995
▁Zusammen	-10.7995
▁akustische	-10.7995
▁bürste	-10.7995
▁entfernen	-10.7995
▁getroffen	-10.7995
▁möchte	-10.7995
▁protestiert	-10.7995
▁umzäunte	-10.7995
▁vergnügen	-10.7995
▁vorführt	-10.7995
▁völlig	-10.7995
▁dribbelt	-10.7995
▁kastanienbraune	-10.7995
▁Schlafzimmer	-10.7995
▁China	-10.7995
▁Forscher	-10.7995
▁bedienen	-10.7995
▁umringt	-10.7995
▁Wildwasser	-10.7995
▁daran	-10.7995
▁schmetter	-10.7995
▁Gehstock	-10.7995
▁Lokal	-10.7995
▁Polo	-10.7995
▁nächtliche	-10.7995
ahrschein	-10.7995
▁Felsbrocken	-10.7995
▁Karohemd	-10.7995
▁Nagel	-10.7995
turnier	-10.7995
▁Bauernmarkt	-10.7995
mitarbeiter	-10.7995
▁Darbietung	-10.7995
▁Garage	-10.7995
▁Nachbarschaft	-10.7995
▁darin	-10.7995
▁Stativ	-10.7995
▁Kraft	-10.7995
kraft	-10.7996
▁folgen	-10.7996
▁boxen	-10.7996
▁Wollmütze	-10.7996
▁Sari	-10.7996
▁Verkaufsstand	-10.7996
▁Oberfläche	-10.7996
▁Polohemd	-10.7996
pult	-10.7996
▁hervor	-10.7996
▁Flussufer	-10.7996
▁gelangen	-10.7996
▁Mitspieler	-10.7996
▁Ansicht	-10.7996
▁Außenbereich	-10.7996
▁Sandburg	-10.7996
▁Käfig	-10.7996
▁Laufbahn	-10.7997
▁Plüschtier	-10.7997
▁Spiegelbild	-10.7997
▁Grau	-10.7997
▁Bass	-10.7997
▁Kampfsportler	-10.7997
▁Absperrung	-10.7997
▁Tanzfläche	-10.7997
▁orangefarben	-10.7998
▁Sandhügel	-10.7998
▁Wohnung	-10.7998
▁Ziegelgebäude	-10.7998
▁Tennisplatz	-10.7998
▁gemalt	-10.7998
stange	-10.7998
▁langärmlige	-10.7999
▁Morgen	-10.7999
▁Rasenfläche	-10.7999
späht	-10.7999
▁ausgezogen	-10.8
▁Papa	-10.8001
▁Parcours	-10.8001
▁bindet	-10.8001
▁schlendert	-10.8001
▁schützt	-10.8001
▁Studio	-10.8002
▁erreichen	-10.8002
▁gefangen	-10.8002
▁Wasserbecken	-10.8002
icht	-10.8003
▁Musikgruppe	-10.8004
▁Stromschnellen	-10.8005
▁Nachrichten	-10.8005
▁Werfer	-10.8005
▁Kopfschmuck	-10.8007
loch	-10.8009
▁anhaben	-10.801
▁sonnen	-10.801
mauer	-10.8014
▁fasst	-10.8014
farbenen	-10.8015
▁bestellen	-10.8019
▁angehalten	-10.8019
▁rostige	-10.802
▁heraushängen	-10.802
▁Einkaufstüten	-10.8021
▁Wolken	-10.8021
▁Texas	-10.8022
ahl	-10.8023
▁Patienten	-10.8025
▁Hinterbeinen	-10.8037
▁Fahrzeuge	-10.8039
▁Wasserfläche	-10.8041
▁holen	-10.8044
▁Bu	-10.8045
ail	-10.8046
▁schaukel	-10.8047
tags	-10.8048
▁Flügeln	-10.8054
▁Großer	-10.8069
ab	-10.8075
▁wieder	-10.8076
▁dieselbe	-10.8077
▁Blasen	-10.8079
mäht	-10.8083
▁geparkte	-10.8084
▁gerichtet	-10.8087
▁überprüfen	-10.809
▁Babys	-10.8095
▁angezogener	-10.8096
▁Tim	-10.8098
▁los	-10.8102
▁Zeitschriften	-10.8103
▁Kartons	-10.8104
▁Ausstellung	-10.8113
▁klaren	-10.8115
▁Innen	-10.8122
farbe	-10.813
▁Station	-10.8132
▁heller	-10.8139
▁Flusses	-10.8143
▁lächelnden	-10.8148
▁Puppen	-10.8156
▁prob	-10.8158
▁Gitarren	-10.819
▁baum	-10.8206
erin	-10.8213
▁Bildes	-10.8222
▁hübschen	-10.8257
lei	-10.8259
▁f	-10.8269
▁Gummi	-10.8271
tik	-10.8278
Holzkonstruktion	-10.8368
Saiteninstrument	-10.8391
▁Windhunde	-10.8416
▁Schneeschuhe	-10.8419
außen	-10.8426
▁fl	-10.8466
lassen	-10.8489
▁historische	-10.8489
▁Produkt	-10.8503
llen	-10.8505
gar	-10.8521
he	-10.8525
▁Bauwerk	-10.8545
rot	-10.8546
rädern	-10.8611
▁Straßenarbeite	-10.8622
▁erleuchtet	-10.8623
▁Wander	-10.8623
▁Mi	-10.8626
ö	-10.8633
▁bestehend	-10.8637
lten	-10.8655
amerikanische	-10.8656
ta	-10.868
▁Ze	-10.8699
▁Pa	-10.8713
▁schwimmende	-10.8775
▁verlassene	-10.8807
▁Streich	-10.8827
▁wilde	-10.885
op	-10.8859
hen	-10.8876
pe	-10.8889
▁Verkehrs	-10.8891
▁helle	-10.8928
recht	-10.8939
kette	-10.8941
▁Str	-10.8951
▁ei	-10.8969
kommen	-10.8988
geben	-10.903
▁ru	-10.9037
▁Fliege	-10.9042
selbe	-10.9052
bung	-10.9057
▁Hinter	-10.9083
▁säuber	-10.9085
▁Beamte	-10.9088
▁ruhige	-10.91
▁Halle	-10.9103
▁Fackel	-10.9104
arbeit	-10.9105
▁Pfanne	-10.9107
ummer	-10.911
▁Stiefel	-10.911
▁Taube	-10.911
▁hellblaue	-10.9112
▁Seifenblase	-10.9112
▁Schürzen	-10.9116
vent	-10.9121
▁liegende	-10.9123
▁Passagiere	-10.9123
▁spritzen	-10.9124
▁Straßenfest	-10.9129
lauf	-10.9143
▁Zauns	-10.9145
▁Schlittschuh	-10.915
▁Snack	-10.9151
▁Hotdog	-10.9155
B	-10.9155
wirft	-10.9159
Band	-10.9159
zeichen	-10.9162
ue	-10.9162
handschuhe	-10.9164
stapel	-10.9165
bo	-10.9167
orangefarbenen	-10.917
ierten	-10.9178
cker	-10.9179
figur	-10.9187
▁angezogene	-10.9188
ltere	-10.9189
ieren	-10.919
▁Go	-10.9192
des	-10.9195
▁Turn	-10.9196
▁erhält	-10.9214
blick	-10.9217
ungen	-10.9221
schlauch	-10.9222
eace	-10.9226
▁Footballspiel	-10.9231
▁Protest	-10.9234
treppe	-10.9239
▁Picknick	-10.924
▁Wind	-10.9241
▁sorg	-10.9241
sichtig	-10.9241
schnüffelt	-10.9242
schüssel	-10.9243
ränkte	-10.9245
▁Stroh	-10.9245
▁Unfall	-10.9245
kante	-10.9245
zentrum	-10.9245
punkt	-10.9245
saugt	-10.9245
▁Batman	-10.9245
▁Monopoly	-10.9245
▁Oldtimer	-10.9245
▁Walmart	-10.9245
Flops	-10.9245
bluse	-10.9245
ylophon	-10.9245
▁Aktentasche	-10.9245
▁Baumstumpf	-10.9245
▁Fotograph	-10.9245
▁Fächer	-10.9245
▁Glatze	-10.9245
▁Gleichgewicht	-10.9245
▁Hängematte	-10.9245
▁Marmor	-10.9245
▁Pfeife	-10.9245
▁Pistole	-10.9245
▁Randstein	-10.9245
▁Rollerskate	-10.9245
▁Smartphone	-10.9245
▁Verschiedene	-10.9245
▁Volks	-10.9245
▁Zahnbürste	-10.9245
▁Zeremonie	-10.9245
▁Zigarre	-10.9245
▁befindliche	-10.9245
▁blühende	-10.9245
▁dekorative	-10.9245
▁erklimmt	-10.9245
▁faulenzen	-10.9245
▁gefrorene	-10.9245
▁gewinnen	-10.9245
▁hochhackige	-10.9245
▁indianische	-10.9245
▁kanadische	-10.9245
▁rührt	-10.9245
▁schwenken	-10.9245
▁skatet	-10.9245
▁telefonieren	-10.9245
▁welche	-10.9245
▁öffnen	-10.9245
▁Dunkelheit	-10.9245
▁dirigier	-10.9245
▁kämpft	-10.9245
▁Buchstaben	-10.9245
▁Jogger	-10.9245
▁Kaffeetasse	-10.9245
▁Staub	-10.9245
▁darüber	-10.9245
▁sortiert	-10.9245
▁Backflip	-10.9245
▁Blaskapelle	-10.9245
▁Supermarkt	-10.9245
▁Gurt	-10.9245
▁Indien	-10.9245
zündet	-10.9245
▁Backsteinmauer	-10.9245
▁Müllcontainer	-10.9245
▁Billard	-10.9245
▁Wildnis	-10.9245
▁Badekappe	-10.9245
▁Europa	-10.9245
▁of	-10.9245
▁Horizont	-10.9245
schlendern	-10.9245
▁Hosenträgern	-10.9245
▁eingewickelt	-10.9245
▁krabbel	-10.9245
▁Reparatur	-10.9245
▁Schlucht	-10.9245
ußgängerübergang	-10.9245
▁Vorführung	-10.9245
▁lernen	-10.9245
▁Wippe	-10.9246
▁Sommertag	-10.9246
▁schlanke	-10.9246
▁segel	-10.9246
▁blockt	-10.9246
richter	-10.9246
▁Hochstuhl	-10.9246
▁irgendwo	-10.9246
▁Garn	-10.9246
▁Rosen	-10.9246
▁Sonnenlicht	-10.9246
▁mittelgroße	-10.9246
▁tun	-10.9246
▁Geldautomaten	-10.9246
▁OP	-10.9246
▁Oberhemd	-10.9246
▁einheimische	-10.9246
▁Mopp	-10.9246
▁Ziegelbau	-10.9246
▁Osten	-10.9246
▁Grünfläche	-10.9246
▁Feuerstelle	-10.9246
▁fern	-10.9246
▁Laufband	-10.9246
▁Neben	-10.9246
▁Steinbank	-10.9246
▁Spielsachen	-10.9246
▁Blonde	-10.9246
▁Zeichnung	-10.9246
stab	-10.9247
▁Klapp	-10.9247
▁Betonmauer	-10.9247
▁Straßenszene	-10.9247
▁muss	-10.9247
lammen	-10.9248
▁geflochtene	-10.9248
▁Kaufhaus	-10.9248
▁Waffel	-10.9248
▁Fischmarkt	-10.9249
▁betet	-10.9249
▁Holzbrett	-10.925
▁Sporthalle	-10.925
▁Wassersprenger	-10.925
▁Baseballfeld	-10.925
▁Rettungs	-10.9251
uell	-10.9252
▁entwe	-10.9252
▁High	-10.9252
▁lohfarbene	-10.9252
▁gespielt	-10.9252
▁Elmo	-10.9252
▁Videokamera	-10.9252
▁hüpfen	-10.9252
▁Wanne	-10.9252
▁Straßenbahn	-10.9252
▁sprüht	-10.9252
gestürzte	-10.9253
▁ausländische	-10.9253
▁burgunderrote	-10.9254
▁ausgeschnittene	-10.9255
Bahnstation	-10.9255
haltung	-10.9256
▁gelegenen	-10.9256
▁Sp	-10.9257
▁verwirrt	-10.9257
gefahren	-10.9258
▁beißen	-10.926
▁Fernseher	-10.9261
ischer	-10.9261
▁Stadtpark	-10.9261
▁Straßenrennen	-10.9261
▁Block	-10.9261
▁Tren	-10.9261
▁Paras	-10.9264
▁passt	-10.9264
▁Staubsauger	-10.9268
zusehen	-10.927
▁Militäruniform	-10.9271
▁Anweisungen	-10.9271
Air	-10.9281
▁Rennens	-10.9292
▁Busses	-10.9293
▁richten	-10.9296
▁rosaroten	-10.9297
▁hellgrünen	-10.9298
▁du	-10.93
▁Kittel	-10.9301
▁verleg	-10.9304
▁Rennfahrer	-10.9304
▁brechen	-10.9313
▁Blech	-10.9317
▁Regenbogen	-10.9326
▁gleiche	-10.9331
▁Figuren	-10.9338
▁Tüten	-10.9339
▁trockenen	-10.9352
reichen	-10.9362
▁beten	-10.9368
▁Ziegen	-10.9371
wart	-10.9377
▁blaugrüne	-10.9379
▁hellrote	-10.9379
▁zer	-10.9381
▁Ozeans	-10.9394
iner	-10.9404
▁freien	-10.9408
▁Schachteln	-10.941
▁Lampen	-10.9413
liegenden	-10.9418
▁Einsatz	-10.942
decken	-10.9432
eiß	-10.944
kopf	-10.9459
▁mehrfarbigen	-10.9466
▁Armee	-10.9476
▁hellgelbe	-10.9477
▁Vögeln	-10.9526
▁angemalte	-10.9558
ant	-10.9562
▁Hause	-10.9575
▁zuhört	-10.9576
▁leere	-10.9586
▁Katzen	-10.9592
▁probier	-10.9597
▁Flugzeugs	-10.9635
▁schaufeln	-10.9645
her	-10.966
kuchen	-10.9678
▁geschlossen	-10.969
▁Po	-10.9694
▁traurig	-10.9706
▁Boots	-10.9716
uft	-10.9716
▁uns	-10.9751
zimmer	-10.9762
▁Schmetterling	-10.9764
son	-10.9785
▁Fahrzeugen	-10.9791
ton	-10.9795
▁türkis	-10.9802
▁Zelten	-10.9819
feuert	-10.9866
▁gefallen	-10.9897
topf	-10.9907
▁Form	-10.9914
▁schicke	-10.9918
▁keine	-10.9924
pf	-11.0013
ierte	-11.0044
▁türkise	-11.0052
ir	-11.0063
pp	-11.0065
fahrrad	-11.0119
grüne	-11.014
ud	-11.0152
▁Bo	-11.0153
▁Hundes	-11.0154
stehenden	-11.0204
ang	-11.021
mel	-11.021
roll	-11.0237
our	-11.0298
▁Bi	-11.0307
baby	-11.0327
▁hocken	-11.0343
teilen	-11.0357
▁c	-11.0358
▁Eisenbahn	-11.0362
▁Nach	-11.0373
▁war	-11.0405
▁Kor	-11.042
graue	-11.0439
itz	-11.0442
▁Cheerleaderin	-11.045
gebäude	-11.0454
los	-11.0494
▁Winterjacke	-11.0516
▁Kabine	-11.0522
▁Warnweste	-11.0528
▁Ziege	-11.0528
▁Kabel	-11.0528
▁Häuser	-11.0535
▁Palme	-11.0536
▁Dose	-11.0538
schaukel	-11.0547
guckt	-11.0548
verkehr	-11.0555
unterricht	-11.0556
bart	-11.0556
automaten	-11.0566
▁Fa	-11.0572
kegel	-11.0573
▁Drink	-11.0575
▁Eier	-11.0576
su	-11.0579
spritzt	-11.0581
setzt	-11.0582
▁Spitz	-11.0584
G	-11.0585
durch	-11.0586
Rad	-11.0587
Wagen	-11.0587
Trikot	-11.0587
Park	-11.0588
▁eng	-11.059
bewegung	-11.0597
▁plan	-11.0599
▁Essens	-11.0613
weste	-11.0615
▁Fang	-11.062
▁Frei	-11.0622
▁Schnu	-11.0624
▁bärtige	-11.0626
▁Gleis	-11.0627
bel	-11.0628
nähe	-11.0649
flasche	-11.0649
▁Rast	-11.0653
and	-11.0654
box	-11.0655
▁Skateboards	-11.0656
schmuck	-11.0658
▁Khaki	-11.0661
tür	-11.0662
zaun	-11.0664
▁Stamm	-11.0668
auto	-11.0669
brille	-11.067
geländer	-11.0671
▁Wasch	-11.0671
▁Plüsch	-11.0672
▁Objekte	-11.0672
läufer	-11.0672
▁Halb	-11.0673
eister	-11.0673
▁Sattel	-11.0673
säge	-11.0673
▁Asphalt	-11.0673
eginn	-11.0673
▁Camping	-11.0673
▁Fliesen	-11.0673
▁Schutt	-11.0674
▁Leucht	-11.0674
▁Fleck	-11.0674
schlange	-11.0674
▁Alkohol	-11.0674
▁Apple	-11.0674
▁Baskenmütze	-11.0674
▁Blazer	-11.0674
▁Demonstration	-11.0674
▁Dschungel	-11.0674
▁Ereignis	-11.0674
▁Felsklippe	-11.0674
▁Filz	-11.0674
▁Getreide	-11.0674
▁Gletscher	-11.0674
▁Gokart	-11.0674
▁Griff	-11.0674
▁Habseligkeiten	-11.0674
▁Jenga	-11.0674
▁Kaninchen	-11.0674
▁Konfetti	-11.0674
▁Kunstgalerie	-11.0674
▁Können	-11.0674
▁Lautsprecher	-11.0674
▁Mülltüte	-11.0674
▁Ochsen	-11.0674
▁Pizzeria	-11.0674
▁Popcorn	-11.0674
▁Schmink	-11.0674
▁Schwebebalken	-11.0674
▁Staffelei	-11.0674
▁Säge	-11.0674
▁Tauziehen	-11.0674
▁Tempel	-11.0674
▁Versuch	-11.0674
▁Violett	-11.0674
▁Wandmalerei	-11.0674
▁aufgeblasen	-11.0674
▁beendet	-11.0674
▁bleiben	-11.0674
▁bleibt	-11.0674
▁faulenzt	-11.0674
▁geflie	-11.0674
▁iPod	-11.0674
▁leitet	-11.0674
▁regelt	-11.0674
▁steinerne	-11.0674
▁tippt	-11.0674
▁zugewandt	-11.0674
▁Barkeeper	-11.0674
▁Betonstufen	-11.0674
▁Coca	-11.0674
▁Indianer	-11.0674
▁Neon	-11.0674
▁Töpferware	-11.0674
▁gepolsterte	-11.0674
▁richtig	-11.0674
▁Friedenszeichen	-11.0674
▁Huhn	-11.0674
▁Highschool	-11.0674
▁Krone	-11.0674
mittelalterliche	-11.0674
▁gießen	-11.0674
▁Nachmittag	-11.0674
▁kümmern	-11.0674
▁Felsformation	-11.0674
eimer	-11.0674
▁Zebrastreifen	-11.0674
▁balg	-11.0674
▁Square	-11.0674
▁Subway	-11.0674
▁genau	-11.0674
▁Begriff	-11.0674
▁abgedunkelte	-11.0674
▁lädt	-11.0674
▁religiöse	-11.0674
▁Großstadt	-11.0674
▁Tankstelle	-11.0674
▁Bücherregal	-11.0674
▁Innenhof	-11.0674
▁Strom	-11.0674
▁zahlreiche	-11.0674
▁Backsteinstraße	-11.0674
▁Bagger	-11.0674
▁strahlend	-11.0674
▁hackt	-11.0674
▁Geldbeutel	-11.0674
▁Modellflugzeug	-11.0674
▁Pflasterstraße	-11.0674
▁gefärbte	-11.0674
▁Hawaii	-11.0674
▁Pinsel	-11.0674
▁Fassade	-11.0674
▁puste	-11.0674
▁Innenraum	-11.0674
▁abgesperrt	-11.0674
▁geschrieben	-11.0674
▁Information	-11.0674
▁Schuss	-11.0674
▁gehüllt	-11.0674
▁Ruderboot	-11.0674
▁mexikanische	-11.0674
▁Felsblock	-11.0674
way	-11.0674
▁Speisekarte	-11.0674
stock	-11.0675
▁grüß	-11.0675
▁Sims	-11.0675
▁Vorstellung	-11.0675
Gesichtsausdruck	-11.0675
▁Kuss	-11.0675
▁Torbogen	-11.0675
heit	-11.0675
▁Ringkampf	-11.0675
▁Wintertag	-11.0675
▁Kinn	-11.0675
▁Seitenlinie	-11.0675
uad	-11.0675
▁Wort	-11.0675
▁Glastür	-11.0675
▁trottet	-11.0675
▁schleift	-11.0676
▁hochgehoben	-11.0676
▁Stammeskleidung	-11.0676
▁gestapelt	-11.0676
▁Pass	-11.0676
▁Umhänge	-11.0676
▁hochzuklettern	-11.0676
▁Seife	-11.0676
▁rauf	-11.0676
▁Stelle	-11.0676
▁buckelnde	-11.0676
▁Stadtszene	-11.0677
▁weißhaarige	-11.0678
▁zielt	-11.0679
▁Berglandschaft	-11.068
▁Imbiss	-11.068
▁hinweg	-11.068
geräum	-11.068
▁Ihr	-11.0681
▁Kontrolle	-11.0681
▁europäische	-11.0682
▁Einrichtung	-11.0682
▁Schwester	-11.0682
▁Tutu	-11.0682
▁Sack	-11.0682
▁weinende	-11.0682
▁Pult	-11.0682
▁Footballfeld	-11.0683
▁Food	-11.0683
▁Betonplatte	-11.0683
▁versteckt	-11.0685
▁fasziniert	-11.0686
▁Brautjungfern	-11.0686
▁Baumstämmen	-11.0686
theke	-11.0687
▁Rockband	-11.0687
Vogelperspektive	-11.0687
▁Graben	-11.0687
▁Kamm	-11.0687
▁lackiert	-11.0688
gestreiften	-11.0688
schließt	-11.0689
▁Basketballfeld	-11.0689
▁Kartenspiel	-11.069
BH	-11.069
▁türkisfarbene	-11.0691
▁gehoben	-11.0692
▁Dress	-11.0692
deckt	-11.0694
▁Stil	-11.0694
▁zuhause	-11.0694
▁steuert	-11.0695
▁interagieren	-11.0695
▁Hundespielzeug	-11.0696
▁binden	-11.0696
▁Schneeball	-11.0697
▁Make	-11.0697
▁Landung	-11.0697
▁Fernsehen	-11.0697
▁vorbeifahren	-11.0697
▁Aufschlag	-11.07
▁Speer	-11.0701
gitter	-11.0701
gefeuert	-11.0703
▁regnet	-11.0703
▁Kameramann	-11.0704
▁Geländefahrzeug	-11.0705
stöcken	-11.0706
▁Busch	-11.0708
▁getragen	-11.071
▁De	-11.0712
▁Noten	-11.0712
▁denkt	-11.0715
▁schreiende	-11.072
▁Preis	-11.0725
▁überdachte	-11.0725
▁dunkelgrüne	-11.0727
▁Laternen	-11.073
▁Fangen	-11.0731
▁Wasserstraße	-11.0731
▁herrliche	-11.0733
▁McDonalds	-11.0736
pa	-11.0739
▁pflanzen	-11.0741
lings	-11.0741
▁Besitzer	-11.0744
pu	-11.0751
▁Bananen	-11.0752
▁Möwen	-11.0752
▁Van	-11.0754
▁reicht	-11.0757
ara	-11.0766
▁Feldhockey	-11.077
▁Schlittschuhen	-11.0773
▁Wetter	-11.0773
▁Herzen	-11.0773
▁Wassermelonen	-11.0775
▁Kopfstein	-11.0779
▁Fahrradrennen	-11.0791
▁Tischdecke	-11.0805
▁haltend	-11.0807
▁Dosen	-11.082
▁rauchend	-11.0823
▁marineblaue	-11.0834
zunehmen	-11.0848
▁gesenkt	-11.0853
▁Handys	-11.0856
od	-11.0857
▁Schiffs	-11.0861
hund	-11.0863
▁Teenagern	-11.0866
▁aufgenommen	-11.0872
▁Passagieren	-11.0873
kommende	-11.0884
▁laufende	-11.0887
▁Enten	-11.0888
ix	-11.09
▁Schauspieler	-11.091
▁Einkaufstaschen	-11.091
bus	-11.0911
▁Stofftier	-11.0914
▁Waffen	-11.0924
schenkt	-11.0924
ood	-11.0932
▁Ketten	-11.0933
▁Knien	-11.0933
▁Regal	-11.0937
▁wen	-11.0942
ass	-11.0959
ho	-11.0976
▁Sommerkleid	-11.0986
oo	-11.1019
rolle	-11.1028
▁Fenstern	-11.1034
ia	-11.1047
▁voran	-11.1051
▁Mini	-11.1056
ntur	-11.1067
▁g	-11.1078
▁Eishockeyspiel	-11.1084
▁kunstvolle	-11.1101
▁Rücks	-11.1105
alt	-11.1114
tor	-11.1121
th	-11.113
iss	-11.1132
ob	-11.1136
▁Runde	-11.1157
▁gek	-11.1173
sgeschäft	-11.1207
▁seichtem	-11.1228
▁Vi	-11.1232
▁Radrenn	-11.1232
▁essend	-11.1248
▁Softballspieler	-11.1252
ost	-11.1257
eck	-11.1257
▁Braun	-11.1263
▁Butt	-11.1281
wi	-11.133
▁Ladens	-11.1331
▁unbekannte	-11.1344
▁Kajaks	-11.1345
▁Paket	-11.1354
ord	-11.1366
▁Fahrzeugs	-11.138
ender	-11.1382
▁aufeinander	-11.1399
▁verbunden	-11.1413
▁erleuchtete	-11.1445
▁Boote	-11.1452
schuhen	-11.1485
räumen	-11.1505
▁Videospiele	-11.1508
▁sitzend	-11.1519
▁for	-11.1535
▁Gesichts	-11.1547
▁wenig	-11.1563
▁Scha	-11.1564
▁Badehosen	-11.1569
▁Schale	-11.1597
eln	-11.1602
▁blond	-11.1603
▁seltsam	-11.1612
▁Werbe	-11.1641
▁Mal	-11.1702
▁schick	-11.1707
▁Zelte	-11.173
▁verletzt	-11.1751
▁kaputte	-11.1751
dy	-11.1754
ze	-11.1761
▁geschlagen	-11.1762
▁einzu	-11.1789
reicht	-11.18
ale	-11.187
▁erhöhte	-11.1877
tel	-11.1887
gestell	-11.192
▁Freizeit	-11.1925
▁gute	-11.1925
W	-11.1998
ug	-11.2003
▁Di	-11.2008
iges	-11.2015
schwimmen	-11.2032
▁spielende	-11.2049
ard	-11.2057
▁leuchtende	-11.2093
uch	-11.21
▁trockene	-11.2103
▁Softballspiel	-11.2105
genommen	-11.2111
ängen	-11.2121
▁Jack	-11.2151
▁rauchen	-11.2168
atz	-11.2168
▁Projektor	-11.2176
▁Street	-11.2186
▁Perücke	-11.219
▁klein	-11.2191
▁Bandmitglieder	-11.2194
strecke	-11.2199
▁klare	-11.22
▁Körbe	-11.22
▁Pose	-11.2202
▁Wände	-11.2203
ock	-11.2205
▁Kunde	-11.2215
▁Bulle	-11.2219
▁Nummern	-11.2219
akt	-11.2227
hält	-11.2227
gibt	-11.223
▁Engel	-11.2241
Fallschirmspring	-11.2242
Cola	-11.2245
▁Fußballtrikot	-11.2246
▁Reise	-11.2248
brechen	-11.2249
bunte	-11.2251
schaufel	-11.2252
Football	-11.2253
▁Eiswagen	-11.2253
rosa	-11.2253
Konzert	-11.2254
▁Punkt	-11.2254
steigt	-11.2254
Auto	-11.2254
paar	-11.2255
junge	-11.2256
schneidet	-11.2256
▁etwa	-11.2258
▁Besitz	-11.2263
schneiden	-11.2268
ständer	-11.228
▁Schieß	-11.228
utter	-11.2281
▁inspizier	-11.2284
▁neb	-11.2288
▁wir	-11.2293
▁kau	-11.2297
▁Bullenr	-11.2297
eilen	-11.2299
▁Dinosaurier	-11.2305
▁spül	-11.2306
gabe	-11.2306
▁Reit	-11.2308
▁Rasier	-11.2312
▁Japan	-11.2312
hügel	-11.2313
▁unglücklich	-11.2316
j	-11.2319
rahmen	-11.2324
sprung	-11.2329
szene	-11.2331
ität	-11.2332
brücke	-11.2333
▁mehr	-11.2336
reihe	-11.2337
künstler	-11.2337
▁For	-11.2338
▁Pri	-11.2338
äufer	-11.2338
▁Dunk	-11.2338
struktur	-11.2338
karren	-11.2339
änteln	-11.2339
becher	-11.234
papier	-11.234
tzt	-11.234
sportler	-11.234
▁Spazier	-11.234
▁Draht	-11.234
objekt	-11.234
aufnahme	-11.234
▁Wild	-11.234
fältig	-11.234
führer	-11.234
grill	-11.234
▁Tank	-11.234
kapelle	-11.234
komplex	-11.234
▁Badminton	-11.234
▁Berggipfel	-11.234
▁Gänse	-11.234
▁Ultimate	-11.234
▁Wasserfontäne	-11.234
▁kommunizier	-11.234
bündel	-11.234
leidenschaftlich	-11.234
motiv	-11.234
outfit	-11.234
▁Aktivität	-11.234
▁Amboss	-11.234
▁America	-11.234
▁Aufmerksamkeit	-11.234
▁Bürste	-11.234
▁Cowgirl	-11.234
▁Digitalkamera	-11.234
▁Einkaufspassage	-11.234
▁Hydranten	-11.234
▁Joggen	-11.234
▁Küchentresen	-11.234
▁Lieblings	-11.234
▁Limousine	-11.234
▁Maulkörben	-11.234
▁Minigolf	-11.234
▁Professor	-11.234
▁Promenade	-11.234
▁Radio	-11.234
▁SMS	-11.234
▁Spielmannszug	-11.234
▁Stabhochsprung	-11.234
▁Textnachricht	-11.234
▁Thema	-11.234
▁Vorlesung	-11.234
▁Weihnachten	-11.234
▁Zuckerwatte	-11.234
▁akrobatische	-11.234
▁begutachten	-11.234
▁beschädigte	-11.234
▁dreckige	-11.234
▁durchsucht	-11.234
▁füttern	-11.234
▁gemütlich	-11.234
▁irgendetwas	-11.234
▁kaukasische	-11.234
▁kehren	-11.234
▁komplizierte	-11.234
▁navigier	-11.234
▁olympische	-11.234
▁pflückt	-11.234
▁schält	-11.234
▁surfen	-11.234
▁trocknet	-11.234
flute	-11.234
▁Haut	-11.234
▁Schloss	-11.234
▁einkaufen	-11.234
▁karge	-11.234
▁kostümierte	-11.234
▁wolkige	-11.234
anzeige	-11.234
▁Bulldozer	-11.234
▁Hüpfburg	-11.234
▁Poloshirt	-11.234
▁Sackhüpfen	-11.234
▁Steg	-11.234
▁platziert	-11.234
wiese	-11.234
▁Rückwärtssalto	-11.234
▁Hörsaal	-11.234
▁Nadelstreifen	-11.234
▁verfolgen	-11.234
▁Dreh	-11.234
▁Fahrgäste	-11.234
▁bequem	-11.234
▁kicken	-11.234
▁Fitnessstudio	-11.234
▁Hochzeitstorte	-11.234
▁müde	-11.234
▁Salat	-11.234
▁Krug	-11.234
▁Polizeibeamte	-11.2341
▁intensiv	-11.2341
tscht	-11.2341
▁Lippenstift	-11.2341
▁Dekorationen	-11.2341
▁schattige	-11.2341
▁Liegestühlen	-11.2341
▁Pyramide	-11.2341
▁wäre	-11.2341
▁Aquarium	-11.2341
▁Kathedrale	-11.2341
▁Spazierstock	-11.2341
▁Wettlauf	-11.2341
▁Fingernägel	-11.2341
▁Angestellte	-11.2341
▁Durchgang	-11.2341
▁Kampfkunst	-11.2341
hammer	-11.2341
▁Domino	-11.2341
▁servieren	-11.2341
▁Möbelstück	-11.2341
aufführung	-11.2341
▁Kamin	-11.2341
▁Schotterstraße	-11.2341
▁Krankenhausbett	-11.2341
▁Bordsteinkante	-11.2341
stil	-11.2341
pflasterstraße	-11.2341
▁Ebene	-11.2341
▁Haarschnitt	-11.2341
▁Fernrohr	-11.2341
▁Schnorchel	-11.2341
▁ausgestopfte	-11.2341
gedruckt	-11.2341
▁Landkarte	-11.2341
▁Schotterweg	-11.2341
▁poliert	-11.2341
ansicht	-11.2341
▁Seilspringen	-11.2341
▁Außenseite	-11.2341
▁Fußgängerbrücke	-11.2341
▁Nachtclub	-11.2341
▁erwischt	-11.2341
udiert	-11.2341
▁aufhat	-11.2341
▁Aktion	-11.2341
▁Motorboot	-11.2341
▁Blumenstrauß	-11.2341
▁Fischerboot	-11.2341
▁Schwanz	-11.2341
stunde	-11.2341
▁nipp	-11.2342
▁verrückt	-11.2342
▁Betonbank	-11.2342
▁Ausschau	-11.2342
▁State	-11.2342
▁Strandpromenade	-11.2342
▁Wanderweg	-11.2342
▁Essenswagen	-11.2342
▁Golfplatz	-11.2342
▁Innere	-11.2342
ofen	-11.2342
▁kurzhaarige	-11.2342
gebung	-11.2342
▁Saal	-11.2342
stimmt	-11.2342
▁cremefarbene	-11.2342
▁Kopftücher	-11.2343
▁Metallzaun	-11.2343
▁gestützt	-11.2343
▁Ausw	-11.2343
▁Bikinioberteil	-11.2343
▁raus	-11.2343
▁Segel	-11.2344
▁Feuerwerk	-11.2344
▁teilnimmt	-11.2344
▁Eislaufen	-11.2344
▁vermu	-11.2344
▁Geschichte	-11.2344
▁Tischtennis	-11.2344
▁versehen	-11.2345
▁Taucheranzug	-11.2345
gesicht	-11.2345
▁Schädel	-11.2345
▁beteiligt	-11.2346
▁herein	-11.2346
▁Fußtritt	-11.2346
▁Senioren	-11.2346
▁Tänzerinnen	-11.2346
▁Leoparden	-11.2346
▁geradeaus	-11.2347
▁Handgelenk	-11.2347
▁Badekleidung	-11.2347
▁mobile	-11.2347
leiter	-11.2347
flugzeug	-11.2347
▁Straßenmarkt	-11.2348
▁Footballteam	-11.2348
▁erreicht	-11.2348
▁Eisbahn	-11.2349
▁Sandskulptur	-11.2349
▁strickt	-11.235
▁hochspringt	-11.235
▁pflüg	-11.235
▁Position	-11.235
▁Pyjama	-11.235
▁Struktur	-11.235
▁Zutaten	-11.235
▁bohrt	-11.235
▁freut	-11.235
▁Hubschrauber	-11.235
▁ethnische	-11.235
▁stöber	-11.235
▁Pony	-11.235
▁bricht	-11.235
▁hochhält	-11.235
▁kontrollier	-11.235
▁besetzte	-11.235
▁zeichnen	-11.2351
▁Ausflug	-11.2351
▁Uferweg	-11.2352
▁Geste	-11.2352
gerahmte	-11.2353
▁schippt	-11.2353
▁lustige	-11.2354
▁Skateboardtrick	-11.2354
▁heran	-11.2355
▁Fall	-11.2355
▁überblickt	-11.2355
▁Haken	-11.2355
zeugen	-11.2356
▁Dunkeln	-11.2356
wählt	-11.2356
▁poli	-11.2356
schale	-11.2358
▁Skateboardpark	-11.2359
▁Wartungsarbeite	-11.2359
▁Schere	-11.2361
▁Autositz	-11.2364
▁Ohrring	-11.2365
▁Schrift	-11.2366
▁Rasenmäher	-11.2367
▁Tennisschuhen	-11.2368
spekt	-11.2369
▁besuch	-11.2371
▁Spielzeugauto	-11.2371
▁Spielplatzgerät	-11.2374
▁untergeht	-11.2375
ers	-11.2376
bäumen	-11.2377
▁Trinken	-11.2377
▁Tiger	-11.2378
▁Trau	-11.238
▁Schwimmflügeln	-11.2381
▁wetteifern	-11.2381
▁Deckel	-11.2383
lehrt	-11.2383
▁Massen	-11.2384
▁verä	-11.2385
▁Notizen	-11.2387
▁Glasgebäude	-11.2387
▁Schwarze	-11.239
angehöriger	-11.239
ätzen	-11.2391
Tisch	-11.2392
rgert	-11.2393
▁Schwein	-11.2395
▁inspizieren	-11.2397
▁Festival	-11.2401
▁besprüht	-11.2403
▁Welt	-11.2403
▁Mast	-11.2404
▁Teenagerin	-11.2407
▁Marke	-11.2408
▁armen	-11.2408
▁einzufangen	-11.2414
▁Begleiter	-11.2414
▁Spielerin	-11.2418
▁Fan	-11.243
▁Toiletten	-11.2434
▁Kiefern	-11.2434
▁Punkten	-11.244
▁probieren	-11.2443
▁Schienen	-11.2444
▁aufgehängt	-11.2449
▁Bahngleisen	-11.245
ay	-11.2451
▁Schw	-11.2451
▁Eiswaffeln	-11.2461
▁Hotdogs	-11.2465
▁heim	-11.2469
▁gefahren	-11.2475
entgegengesetzte	-11.2488
▁dunkelbraune	-11.2491
▁fröhliches	-11.2506
▁Kabeln	-11.2515
▁Warnwesten	-11.2515
▁Schwimmhilfe	-11.2518
▁Ra	-11.2529
tiefeln	-11.2532
nummer	-11.2543
▁Ar	-11.2543
▁recht	-11.2562
latz	-11.2566
tiert	-11.2583
▁Gewehren	-11.2591
▁Werkzeugen	-11.2597
greifen	-11.2608
stens	-11.261
▁tanzende	-11.2626
▁Verkaufs	-11.2636
▁Stra	-11.264
▁Gürteln	-11.2652
▁Plane	-11.2653
▁aufrecht	-11.2666
▁tiefen	-11.2674
▁Eingangs	-11.2676
homa	-11.2686
kt	-11.2692
chaufensterfront	-11.2707
▁Fußballspielen	-11.271
▁niedliche	-11.2717
▁Messe	-11.272
tischen	-11.2721
springt	-11.2733
▁Fer	-11.2736
▁tiefe	-11.274
va	-11.2741
one	-11.2747
▁interessante	-11.2748
▁jed	-11.2755
bi	-11.2758
streifen	-11.2763
Freizeitkleidung	-11.2773
üste	-11.2775
▁Spielers	-11.278
▁Alte	-11.2799
▁Stücke	-11.2807
▁Ga	-11.2808
▁gesäumt	-11.2809
▁Tourist	-11.2838
▁Kegeln	-11.2846
chaufensterpuppe	-11.2852
ata	-11.2867
▁Arbeiten	-11.2881
▁komische	-11.2903
ger	-11.2903
isten	-11.2918
qui	-11.2921
▁gedrängt	-11.2928
len	-11.293
▁modische	-11.2962
▁verletzte	-11.2967
lack	-11.2969
ill	-11.298
▁Fitness	-11.2986
▁Gesichter	-11.3019
▁Große	-11.3026
The	-11.3032
Co	-11.3039
▁wurden	-11.3043
deck	-11.3053
▁Reihen	-11.3057
schließ	-11.306
▁schwer	-11.3066
lam	-11.3075
▁abge	-11.3082
rotes	-11.3083
▁Spielzeuge	-11.3088
▁arbeitende	-11.3099
▁ba	-11.31
ba	-11.31
▁Zähnen	-11.3101
ney	-11.3112
station	-11.3129
stützt	-11.315
▁Golfspiel	-11.3155
artig	-11.3164
▁Funk	-11.318
▁rosarot	-11.3182
ow	-11.3185
▁aufgeregte	-11.3191
ac	-11.3202
▁Mikrofone	-11.3206
▁Wüsten	-11.3223
ling	-11.3234
▁Tänzern	-11.3246
▁Baums	-11.3261
▁Sitzende	-11.3266
stücke	-11.3266
▁bedruckt	-11.3273
bett	-11.3279
ette	-11.3285
einend	-11.3291
hä	-11.3302
▁kein	-11.3312
▁Felsens	-11.3346
amp	-11.3361
▁Ufers	-11.337
die	-11.3407
▁Coll	-11.3412
kel	-11.3431
▁Rollern	-11.3452
kun	-11.3467
äu	-11.3475
▁aufge	-11.3482
▁Hacke	-11.3521
lung	-11.3526
▁Scheinwerfer	-11.3539
stelle	-11.3542
▁Familien	-11.3548
▁Schülern	-11.3553
▁aufzu	-11.3558
▁nacktes	-11.3575
roter	-11.3587
instrument	-11.3638
kund	-11.366
gew	-11.3679
aff	-11.3711
tackelt	-11.3716
▁Steuer	-11.3735
elle	-11.3744
haarige	-11.3765
rutsche	-11.3776
ub	-11.3795
int	-11.3811
Ru	-11.384
▁angemalt	-11.3841
▁besch	-11.3848
▁gebückt	-11.3865
horn	-11.3872
ment	-11.3902
liche	-11.3921
▁schw	-11.3926
▁ärmellosem	-11.3933
▁Red	-11.396
▁Do	-11.3962
eis	-11.3991
hand	-11.4001
sion	-11.4012
eiße	-11.402
▁Musikern	-11.4027
▁Schwimmerin	-11.4033
getränk	-11.4036
▁ungewöhnlich	-11.4039
gestreifte	-11.4111
netz	-11.4111
▁marineblau	-11.4115
▁älter	-11.4123
▁groß	-11.4128
richten	-11.4133
ät	-11.4134
ate	-11.4141
▁Met	-11.4149
nde	-11.4151
blätter	-11.4162
echten	-11.4169
▁näher	-11.417
leitung	-11.4174
bt	-11.4175
nden	-11.4177
▁Training	-11.4183
▁sichtbar	-11.4187
▁Ch	-11.4188
▁Aufgabe	-11.4191
▁letzte	-11.4192
▁Eiswaffel	-11.4195
▁Speise	-11.4196
▁Wassermelone	-11.4197
▁Tüte	-11.4198
eisten	-11.4201
▁Büsche	-11.4202
▁bewölkte	-11.4203
▁Kerze	-11.4203
▁Rucksäcke	-11.4203
▁parken	-11.4204
▁Jahre	-11.4206
H	-11.4221
wasser	-11.4232
▁kreis	-11.4234
▁gra	-11.4235
▁Geburtstag	-11.4241
graben	-11.4248
Kittel	-11.4249
Rennfahrer	-11.4249
Mitarbeiter	-11.4251
Tattoo	-11.4251
▁Begleit	-11.4251
▁McDonald	-11.4251
Werbung	-11.4252
Ausrüstung	-11.4253
Tunnel	-11.4253
jagt	-11.4254
Computer	-11.4254
Rennen	-11.4254
Restaurant	-11.4254
Fahrrad	-11.4254
herum	-11.4254
tief	-11.4254
▁enge	-11.4255
▁schl	-11.4256
▁Farb	-11.4257
▁Schweiß	-11.4257
▁Kom	-11.4259
fertige	-11.4264
▁Fu	-11.4266
▁we	-11.4269
holen	-11.4269
▁sp	-11.4271
▁dränge	-11.4274
uniform	-11.4278
▁Bauer	-11.4278
▁Teddybär	-11.4278
▁rund	-11.4278
▁Athlet	-11.4278
tier	-11.428
ausstellung	-11.4281
wärts	-11.4281
▁Löwen	-11.4281
treffen	-11.4284
▁Notiz	-11.4284
▁Patient	-11.4285
▁Not	-11.4286
▁Gegen	-11.4291
nsammlung	-11.4291
▁Wett	-11.4298
springer	-11.4305
stoff	-11.4316
▁Pitch	-11.4317
bank	-11.4318
▁bewunder	-11.4321
roh	-11.4322
▁pack	-11.4322
spielen	-11.4324
motor	-11.4325
Teams	-11.4326
haufen	-11.4328
▁hellrosa	-11.4329
▁umgedrehte	-11.4329
zuheben	-11.433
räumt	-11.4331
feier	-11.4331
ester	-11.4332
kasten	-11.4333
bogen	-11.4335
trikot	-11.4335
gegend	-11.4335
lampe	-11.4337
hof	-11.4338
▁Möbel	-11.4339
rtikel	-11.4339
projekt	-11.4339
putzer	-11.434
▁Eisschnelll	-11.434
▁Pelz	-11.434
▁Pflaster	-11.434
kugel	-11.434
ordnet	-11.434
▁Durch	-11.434
blatt	-11.434
▁Euro	-11.434
dunkelte	-11.434
▁Bongo	-11.434
▁rustikal	-11.434
▁Wälder	-11.434
▁Zoo	-11.434
▁laub	-11.434
▁umgekippt	-11.434
Maskottchen	-11.434
bude	-11.434
echani	-11.434
gerissen	-11.434
geschenke	-11.434
kragen	-11.434
pullover	-11.434
schaftskollegen	-11.434
schonern	-11.434
sgesellschaft	-11.434
stöckige	-11.434
terrasse	-11.434
unruhige	-11.434
werfer	-11.434
▁Abstammung	-11.434
▁Ballbesitz	-11.434
▁Betrieb	-11.434
▁Buffet	-11.434
▁Camper	-11.434
▁Denkmal	-11.434
▁Dessert	-11.434
▁Dirigent	-11.434
▁Dutzend	-11.434
▁Friedhof	-11.434
▁Front	-11.434
▁Fässer	-11.434
▁Garagentor	-11.434
▁Halfpipe	-11.434
▁Harfe	-11.434
▁Haupt	-11.434
▁Hochzeitsfeier	-11.434
▁Huckepack	-11.434
▁Höhle	-11.434
▁Karikatur	-11.434
▁Kitesurf	-11.434
▁Kleinigkeit	-11.434
▁Kongress	-11.434
▁Krabbe	-11.434
▁Kutsche	-11.434
▁Matratze	-11.434
▁Mehl	-11.434
▁Männliche	-11.434
▁Nike	-11.434
▁Orangensaft	-11.434
▁Poncho	-11.434
▁Reporter	-11.434
▁Riemen	-11.434
▁Roboter	-11.434
▁Schwierigkeiten	-11.434
▁Skilift	-11.434
▁Staffellauf	-11.434
▁Söhne	-11.434
▁Truthahn	-11.434
▁Türeingang	-11.434
▁Unterricht	-11.434
▁Vorbereitung	-11.434
▁Werkzeuggürtel	-11.434
▁Wissenschaftler	-11.434
▁Zombie	-11.434
▁abgewandt	-11.434
▁arabische	-11.434
▁befestigen	-11.434
▁bettelt	-11.434
▁bummel	-11.434
▁dafür	-11.434
▁demonstrier	-11.434
▁deutet	-11.434
▁erzielen	-11.434
▁erzählt	-11.434
▁funktioniert	-11.434
▁geschnitzte	-11.434
▁getrocknet	-11.434
▁gewonnen	-11.434
▁heißt	-11.434
▁interviewt	-11.434
▁irgendwelche	-11.434
▁jüdische	-11.434
▁klassische	-11.434
▁kriech	-11.434
▁leckere	-11.434
▁lenkt	-11.434
▁neongrüne	-11.434
▁obdachlose	-11.434
▁sanft	-11.434
▁sortieren	-11.434
▁stolpert	-11.434
▁süße	-11.434
▁verloren	-11.434
▁wadet	-11.434
▁winzige	-11.434
▁überwiegend	-11.434
▁Bedienung	-11.434
▁Elektri	-11.434
▁Esszimmer	-11.434
▁Lobby	-11.434
▁Schanze	-11.434
▁Schaumbad	-11.434
▁Sprache	-11.434
▁Stoß	-11.434
▁Sturz	-11.434
▁Tauchausrüstung	-11.434
▁Vieh	-11.434
▁Weingläsern	-11.434
▁balancieren	-11.434
▁gemischte	-11.434
▁misst	-11.434
▁verteidigen	-11.434
▁zerbrochene	-11.434
ffnung	-11.434
kissen	-11.434
nüss	-11.434
▁Chef	-11.434
▁Doktor	-11.434
▁Endzone	-11.434
▁Schusswaffe	-11.434
▁lausch	-11.434
▁Power	-11.434
▁hechtet	-11.434
▁lokale	-11.434
▁stecken	-11.434
▁Indische	-11.434
▁Tief	-11.434
umgebung	-11.434
ziegel	-11.434
▁Jetski	-11.434
▁gepflegte	-11.434
▁verliert	-11.434
wanderung	-11.434
▁Bauernhof	-11.434
▁Terrier	-11.434
▁verkehrsreiche	-11.434
ordnung	-11.434
▁Kletterwand	-11.434
▁Sprühfarbe	-11.434
▁schräg	-11.434
dehnt	-11.4341
▁Comic	-11.4341
▁Disney	-11.4341
▁Säcke	-11.4341
ingham	-11.4341
▁trommelt	-11.4341
▁Lehm	-11.4341
▁blass	-11.4341
motorrad	-11.4341
▁Trocken	-11.4341
▁Absperrband	-11.4341
▁Hängebrücke	-11.4341
▁Blue	-11.4341
▁Bäckerei	-11.4341
▁Kanone	-11.4341
▁Kleinstadt	-11.4341
▁Lappen	-11.4341
gurt	-11.4341
▁Backsteinwand	-11.4341
▁Gabel	-11.4341
▁Kniestrümpfe	-11.4341
▁malerische	-11.4341
säule	-11.4341
▁Wheelie	-11.4341
▁Diadem	-11.4341
▁Klarinette	-11.4341
vorstellung	-11.4341
▁liebe	-11.4341
▁Hafengebiet	-11.4341
sims	-11.4341
▁Gemeinde	-11.4341
▁Burg	-11.4341
▁fechten	-11.4341
▁Abhang	-11.4341
▁Auszeichnung	-11.4341
▁Kastenwagen	-11.4341
▁Operationssaal	-11.4341
▁Gäste	-11.4341
▁Abschluss	-11.4341
▁zupft	-11.4341
▁Fliesenboden	-11.4341
▁Material	-11.4341
▁stoßen	-11.4341
▁streicheln	-11.4341
▁Programm	-11.4341
▁Nonne	-11.4341
▁Erdboden	-11.4341
▁Strohhalm	-11.4341
▁Symbol	-11.4341
▁Blätterhaufen	-11.4341
▁Toreinfahrt	-11.4341
schnee	-11.4341
rido	-11.4341
▁Faust	-11.4341
▁Straßenlaterne	-11.4341
▁Umhängetasche	-11.4341
▁Freiluftmarkt	-11.4341
▁bergige	-11.4341
▁Lama	-11.4341
▁errichtet	-11.4341
▁gespreizt	-11.4341
▁Walk	-11.4341
▁Schildkröte	-11.4341
▁geholfen	-11.4341
▁Städtische	-11.4342
▁Holzplattform	-11.4342
▁Spur	-11.4342
▁Führung	-11.4342
▁Plakatwand	-11.4342
▁Vordach	-11.4342
▁Bademantel	-11.4342
▁Mais	-11.4342
▁Marathonlauf	-11.4342
▁Skigebiet	-11.4342
▁ro	-11.4342
▁Aufwärmen	-11.4342
person	-11.4342
▁Saft	-11.4342
reist	-11.4342
▁Rennbahn	-11.4342
gerüst	-11.4343
▁Blöcke	-11.4343
▁stämmige	-11.4343
▁Konferenztisch	-11.4343
▁kniehohe	-11.4343
ington	-11.4343
▁beschmiert	-11.4343
▁beaufsichtigt	-11.4343
▁Acker	-11.4343
▁rollen	-11.4343
▁befragt	-11.4343
▁Berghang	-11.4343
▁Lachen	-11.4343
▁halbw	-11.4343
leute	-11.4343
▁Warenkorb	-11.4344
▁Mü	-11.4344
▁Gartenstuhl	-11.4344
▁rangel	-11.4344
▁Betonrampe	-11.4344
▁Seilschaukel	-11.4344
▁Pferderennen	-11.4344
ähre	-11.4344
▁Sturm	-11.4345
▁verteilen	-11.4345
▁Handtücher	-11.4346
▁Absatzschuhe	-11.4346
▁Freundinnen	-11.4346
▁tote	-11.4347
schützer	-11.4347
▁Schrank	-11.4347
▁Fußboden	-11.4347
▁Stütz	-11.4347
▁Holzboot	-11.4347
▁Fast	-11.4347
▁Tritt	-11.4348
▁Surfen	-11.4348
▁Bergsteigen	-11.4348
▁beenden	-11.4348
▁außerdem	-11.4348
▁durchsichtige	-11.4348
prach	-11.4348
▁Day	-11.4348
▁Holzstuhl	-11.4349
▁Fahrradreifen	-11.4349
▁Trop	-11.435
▁Babyschaukel	-11.435
▁gestaltete	-11.435
design	-11.4351
▁Schneehaufen	-11.4351
▁rundes	-11.4351
gläser	-11.4352
▁bastelt	-11.4352
▁geschossen	-11.4352
▁Rallye	-11.4352
▁gesteckt	-11.4352
▁Kulisse	-11.4352
▁Miami	-11.4352
▁Pinata	-11.4352
▁Seattle	-11.4352
▁klatschen	-11.4352
▁laut	-11.4352
▁Open	-11.4352
▁umklammert	-11.4353
▁Kre	-11.4353
▁Stiel	-11.4353
▁Superman	-11.4353
▁Dart	-11.4354
ieht	-11.4354
▁Warn	-11.4354
▁Schwertern	-11.4354
▁Schwan	-11.4354
▁Vorder	-11.4355
▁Marktstand	-11.4356
▁Schalter	-11.4356
▁Spielzug	-11.4357
▁Las	-11.4357
▁Labrador	-11.4358
gefunden	-11.4359
▁Inlineskater	-11.4359
teig	-11.4359
▁Ruinen	-11.4359
▁Matrosen	-11.4359
▁Transporter	-11.4359
▁Rod	-11.436
▁Kollegen	-11.436
▁erhalten	-11.436
▁reagieren	-11.436
▁erledigen	-11.436
sessel	-11.436
blättert	-11.4361
▁Taste	-11.4361
▁tausch	-11.4363
hütte	-11.4363
▁Singe	-11.4364
frikanische	-11.4364
▁bieg	-11.4365
▁Klettern	-11.437
Metallgegenstand	-11.4371
orangen	-11.4371
▁Aufkleber	-11.4373
▁beeindruckende	-11.4373
▁Kämpfer	-11.4373
▁lin	-11.4374
▁Tennisspielen	-11.4374
gericht	-11.4374
▁Wir	-11.4377
schiedenfarbige	-11.4378
▁Stadtplatz	-11.4379
▁Wasserlauf	-11.4379
▁Bürogebäude	-11.4379
▁Basketballkorb	-11.438
klasse	-11.4385
▁Motorradrennen	-11.4388
▁Tarnhose	-11.4388
▁Schneemann	-11.4388
▁antike	-11.4388
▁Dritte	-11.4389
▁Mikrofonen	-11.439
▁Pfoten	-11.4391
▁Zitronen	-11.4391
▁Gegenspieler	-11.4391
▁Car	-11.4392
▁Urlaubs	-11.4392
▁vollständig	-11.4394
▁geschoben	-11.4394
▁Turnier	-11.4395
▁Schülerin	-11.4397
Kunstausstellung	-11.4401
▁Inder	-11.4405
▁Wasserfahrzeug	-11.4406
▁anschauen	-11.4409
▁zuhören	-11.4412
▁Logo	-11.4415
▁Schutzwesten	-11.4424
▁gedeckt	-11.4426
rutscht	-11.4426
lterer	-11.4429
▁Flieger	-11.4432
▁entlanggehen	-11.4434
figuren	-11.4437
▁Bretter	-11.4441
bungen	-11.4442
gestellt	-11.4443
aune	-11.4447
röße	-11.4457
▁Lichtern	-11.4457
▁Nudeln	-11.4457
▁sportliche	-11.4459
▁Cola	-11.446
ish	-11.4462
seilen	-11.4465
stapelt	-11.4472
sicht	-11.4488
itzt	-11.449
▁letzten	-11.4491
▁brä	-11.4505
▁Schneeschuh	-11.4513
▁scharfe	-11.4515
▁vorbereiten	-11.4522
▁Derby	-11.4527
▁kna	-11.453
▁Chips	-11.4535
liches	-11.4535
▁Hänge	-11.4548
▁Skulpturen	-11.4555
▁Blase	-11.4561
schwarze	-11.4569
▁Heißluftballons	-11.4578
▁entl	-11.458
▁zueinander	-11.4581
▁he	-11.4585
▁betreib	-11.4586
▁Kamelen	-11.4586
gefähr	-11.4591
▁Fackeln	-11.4592
▁Fliegen	-11.4593
▁Golden	-11.4594
▁Dog	-11.4596
nis	-11.46
▁verbring	-11.4607
▁Pfannen	-11.4609
tön	-11.461
▁Kara	-11.4613
turm	-11.4619
▁Rollen	-11.4621
▁Platten	-11.4625
▁würden	-11.4626
tur	-11.4632
kostümen	-11.4643
▁Kleidungsstücke	-11.4644
uss	-11.4653
▁Or	-11.4658
▁Halsketten	-11.466
▁gesichert	-11.4678
eine	-11.4697
▁übergroße	-11.4711
▁pinkfarben	-11.4721
indernisparcours	-11.4722
▁waten	-11.4727
kiste	-11.4739
betrieben	-11.474
▁Tages	-11.4758
▁lesend	-11.4762
▁Wangen	-11.4763
▁Na	-11.4768
ssaal	-11.4772
ek	-11.4772
zeichnet	-11.4774
▁Bahnen	-11.4779
pl	-11.4782
ko	-11.4802
mützen	-11.4808
▁Per	-11.4809
▁schieb	-11.4816
tes	-11.482
▁Weiße	-11.4823
iz	-11.4831
▁menschliche	-11.4852
▁Teamkollege	-11.4852
rote	-11.4857
rzte	-11.4861
▁Kl	-11.4914
▁Schaufenstern	-11.4937
geschäfts	-11.4962
▁Bos	-11.4967
▁Ziegelstein	-11.4976
▁Lastwagens	-11.4981
▁Büchern	-11.5009
▁neu	-11.5032
▁Hecke	-11.5041
geräte	-11.5045
▁Großm	-11.5052
▁ansch	-11.5055
▁verkehr	-11.5062
parade	-11.5072
▁Kricketspiel	-11.5082
lern	-11.5091
geschlagene	-11.5115
kreuzt	-11.5119
▁Reklame	-11.5122
trainer	-11.5127
▁Ausführ	-11.5158
▁Geburtstags	-11.5164
werkzeug	-11.5168
▁festliche	-11.517
▁Lad	-11.5182
▁Ren	-11.5187
ixt	-11.5206
cheinwerferlicht	-11.5212
▁Fe	-11.5214
schüttet	-11.5219
com	-11.5229
ache	-11.5253
▁aufgesetzte	-11.5263
▁knappe	-11.5285
▁förmlich	-11.533
▁Sta	-11.5332
del	-11.5344
▁vorbeigehende	-11.535
▁Nasen	-11.5369
▁Kanal	-11.537
▁bade	-11.5384
▁ä	-11.5397
il	-11.5422
▁Masken	-11.5451
att	-11.5457
▁beladene	-11.546
▁Vaters	-11.5464
▁Lou	-11.5477
iel	-11.5481
▁Dreiräder	-11.5482
▁inner	-11.5483
▁Trockne	-11.5491
▁Segelboote	-11.5502
▁hübsch	-11.5512
ap	-11.5519
▁Mari	-11.5526
tage	-11.5545
▁Grills	-11.5561
▁Teile	-11.559
▁Einfahrt	-11.5602
wan	-11.5607
ies	-11.5611
▁übersäte	-11.5622
▁kniend	-11.5626
▁gel	-11.5633
K	-11.5634
ssen	-11.5651
otte	-11.5656
▁Bill	-11.5677
▁förmliche	-11.5699
▁Ca	-11.5708
▁nichts	-11.5713
itzen	-11.5734
plakat	-11.5742
▁ausge	-11.5747
malen	-11.5766
vi	-11.5771
lebt	-11.5773
▁spielend	-11.5779
braun	-11.5799
▁schwarzweiß	-11.5806
uck	-11.5807
alten	-11.5816
eil	-11.584
fen	-11.5843
▁hochkletter	-11.585
▁leer	-11.5851
kla	-11.5867
Fi	-11.5875
raußen	-11.5876
platten	-11.5884
kreuz	-11.5916
tliche	-11.5923
▁modisch	-11.5939
▁all	-11.5955
spielerin	-11.5973
sraum	-11.5976
badet	-11.5983
stanz	-11.5984
▁Deutsche	-11.6008
legen	-11.6028
▁Schleif	-11.6032
▁Schl	-11.6041
hi	-11.6042
▁Li	-11.6058
wöl	-11.6073
▁brünett	-11.6101
▁Japaner	-11.6134
que	-11.6135
oke	-11.6135
stoß	-11.616
stet	-11.6179
▁Mess	-11.6211
kü	-11.6236
ndern	-11.624
▁Lä	-11.6249
▁beginnen	-11.6257
tte	-11.6265
tragen	-11.6268
▁Alt	-11.6301
ph	-11.6316
▁wirken	-11.6323
tro	-11.6341
▁Fre	-11.6365
hin	-11.637
▁So	-11.6374
so	-11.6383
leuchte	-11.6389
▁hatte	-11.6389
form	-11.639
spiegel	-11.6401
satz	-11.6405
gel	-11.6407
▁Her	-11.6417
▁Stofftiere	-11.6435
pfen	-11.6439
ause	-11.6451
▁protestieren	-11.6452
arbeiten	-11.6456
gebäudes	-11.6461
▁All	-11.6468
falle	-11.6469
nnt	-11.6506
gucken	-11.6508
▁gesenkte	-11.652
▁Va	-11.6525
stiefel	-11.654
▁Ausstellungs	-11.6577
vor	-11.6586
L	-11.6587
greif	-11.6601
orange	-11.6606
lanke	-11.6607
▁winken	-11.6612
utsch	-11.6617
helfe	-11.6633
▁Jung	-11.6644
mittel	-11.6649
ohren	-11.6649
▁Künstlerin	-11.6651
scha	-11.6654
seil	-11.6659
▁Tische	-11.6665
smittel	-11.6671
steinen	-11.6676
▁Broschüre	-11.6681
▁Gesichtsmaske	-11.6682
▁fahr	-11.6682
▁beigefarben	-11.6684
▁Nudel	-11.6692
gepackt	-11.6693
▁Schiene	-11.6695
▁Kiefer	-11.6695
wache	-11.6695
▁Banane	-11.6697
▁Möwe	-11.6697
▁Toilette	-11.6698
▁Flügel	-11.6699
▁langärmelige	-11.6701
▁Rettungsweste	-11.6702
▁zusammenge	-11.6703
▁Anzüge	-11.6706
▁Spielzeugen	-11.6708
▁Bahngleise	-11.671
blöcke	-11.6718
pfer	-11.673
▁beg	-11.6736
kommt	-11.6737
wachsen	-11.674
▁Jahr	-11.6745
▁Leben	-11.6745
Logo	-11.6745
kreis	-11.6745
nah	-11.6745
Festival	-11.6747
▁Unterhaltung	-11.6747
überdachte	-11.6748
heim	-11.6748
besuch	-11.675
bringt	-11.675
gesäumte	-11.675
Puppe	-11.6751
hör	-11.6751
Kugel	-11.6751
lässt	-11.6752
Wettbewerb	-11.6753
lpen	-11.6753
▁Passagier	-11.6753
iegen	-11.6753
Künstler	-11.6753
küsst	-11.6753
Laden	-11.6754
Land	-11.6754
Schuhen	-11.6754
Veranstaltung	-11.6754
schlägt	-11.6754
Gebäude	-11.6754
Statue	-11.6754
Shorts	-11.6754
Jacke	-11.6754
Gruppe	-11.6754
Feld	-11.6755
▁Geh	-11.6755
▁schreien	-11.6756
goldene	-11.6757
Fußballspieler	-11.6758
dreht	-11.676
hellbraune	-11.6761
trupp	-11.6761
Welt	-11.6762
lastwagen	-11.6763
locken	-11.6764
▁Rolle	-11.6765
▁Milch	-11.6769
▁Elf	-11.6773
▁Viel	-11.6783
▁Trink	-11.6784
▁Anweisung	-11.6785
zuschauen	-11.6787
▁Wasserball	-11.6789
▁Spee	-11.679
Team	-11.679
ürz	-11.6792
musik	-11.6792
Skater	-11.6794
Wh	-11.6796
ör	-11.6796
▁Rude	-11.6798
schauen	-11.6799
▁Lu	-11.6803
bewegungen	-11.6806
berg	-11.6808
dass	-11.6808
▁Eiscrem	-11.6809
üssen	-11.6811
geführt	-11.6811
▁früh	-11.6811
schloss	-11.6814
board	-11.6814
▁Transport	-11.6815
▁Besuch	-11.6815
▁Lenk	-11.6816
▁wirk	-11.6819
klu	-11.6819
uniformen	-11.682
▁versteck	-11.6821
▁Outfi	-11.6822
blumen	-11.6824
▁Steig	-11.6825
▁Inderin	-11.6826
gebiet	-11.6826
▁Wohn	-11.6828
▁pflanz	-11.6828
▁biete	-11.6828
elder	-11.6828
schlitten	-11.683
▁Body	-11.6831
▁Kühl	-11.6832
crew	-11.6833
▁Kranken	-11.6834
gerollt	-11.6834
pfosten	-11.6834
tafel	-11.6834
salon	-11.6836
trennt	-11.6837
▁Schreib	-11.6837
sprecher	-11.6839
▁Flag	-11.6839
▁sprin	-11.6839
▁Schotter	-11.6839
position	-11.6839
▁Schwer	-11.6839
grube	-11.6839
▁Partner	-11.684
verkauf	-11.684
flügel	-11.684
grund	-11.684
schluss	-11.684
gäste	-11.684
runne	-11.684
▁Bleistift	-11.684
▁Zuhörer	-11.684
hauer	-11.684
wohn	-11.684
▁Zebra	-11.684
jungf	-11.684
pierc	-11.684
▁Bronzes	-11.684
▁Henna	-11.684
▁Holzkohle	-11.684
▁Mittelalter	-11.684
▁Sprinkler	-11.684
amaha	-11.684
ografie	-11.684
▁Gehörschutz	-11.684
▁Krokodil	-11.684
▁Miniatur	-11.684
▁Oxford	-11.684
▁Pickup	-11.684
▁Unterstützung	-11.684
Kiosk	-11.684
Love	-11.684
beleuchtung	-11.684
berqueren	-11.684
geschirr	-11.684
manövriert	-11.684
offizielle	-11.684
vermählte	-11.684
zufinden	-11.684
▁Abenddämmerung	-11.684
▁Absolventen	-11.684
▁Affen	-11.684
▁Ananas	-11.684
▁Angelschnur	-11.684
▁Anlass	-11.684
▁Apartment	-11.684
▁Apparat	-11.684
▁Augenbraue	-11.684
▁Basketbälle	-11.684
▁Bassgitarre	-11.684
▁Blumenmädchen	-11.684
▁Bungee	-11.684
▁Bärten	-11.684
▁Bürgerkriegs	-11.684
▁Concert	-11.684
▁Dirtbike	-11.684
▁Dokument	-11.684
▁Ehemann	-11.684
▁Elektrogitarre	-11.684
▁Elektronik	-11.684
▁Essstäbchen	-11.684
▁Felsenklippe	-11.684
▁Fundament	-11.684
▁Fäuste	-11.684
▁Gabelstapler	-11.684
▁Gasmaske	-11.684
▁Gebirge	-11.684
▁Gedanken	-11.684
▁Geisha	-11.684
▁Gerätschaften	-11.684
▁Gestrüpp	-11.684
▁Glatzenansatz	-11.684
▁Harmonika	-11.684
▁Hausaufgaben	-11.684
▁Hispan	-11.684
▁Hockeyschläger	-11.684
▁Husky	-11.684
▁Hölle	-11.684
▁Knochen	-11.684
▁Kopie	-11.684
▁Kälte	-11.684
▁Leichtathlet	-11.684
▁Leotard	-11.684
▁Liegestütze	-11.684
▁Lokomotive	-11.684
▁Maiskolben	-11.684
▁Mundharmonika	-11.684
▁Olympia	-11.684
▁Ordnung	-11.684
▁Papiertüte	-11.684
▁Pfahl	-11.684
▁Pinien	-11.684
▁Podest	-11.684
▁Poolbillard	-11.684
▁SUV	-11.684
▁Schläfchen	-11.684
▁Schläuche	-11.684
▁Schneewehe	-11.684
▁Schneidebrett	-11.684
▁Skyline	-11.684
▁Sombrero	-11.684
▁Sonnenschein	-11.684
▁Spagat	-11.684
▁Sportereignis	-11.684
▁Starbucks	-11.684
▁Strafzettel	-11.684
▁Strickjacke	-11.684
▁Stäbchen	-11.684
▁Teammitglied	-11.684
▁Technik	-11.684
▁Telefonmasten	-11.684
▁Töpferscheibe	-11.684
▁UNICEF	-11.684
▁University	-11.684
▁Universität	-11.684
▁Verstärker	-11.684
▁Windsurfe	-11.684
▁Wörter	-11.684
▁Zentrum	-11.684
▁Zwilling	-11.684
▁abzuwehren	-11.684
▁beleibte	-11.684
▁besprechen	-11.684
▁breitkrempigen	-11.684
▁bügelt	-11.684
▁deutlich	-11.684
▁diskutiert	-11.684
▁erklärt	-11.684
▁flatter	-11.684
▁fliederfarbene	-11.684
▁flüster	-11.684
▁französische	-11.684
▁freuen	-11.684
▁frustriert	-11.684
▁galoppier	-11.684
▁gefilmt	-11.684
▁gelandet	-11.684
▁geneigte	-11.684
▁gescheckte	-11.684
▁getupfte	-11.684
▁gleiten	-11.684
▁glitzernde	-11.684
▁grinde	-11.684
▁grinst	-11.684
▁heiraten	-11.684
▁hämmer	-11.684
▁jugendliche	-11.684
▁kostet	-11.684
▁liebkost	-11.684
▁maskierte	-11.684
▁matsch	-11.684
▁mechanische	-11.684
▁musikalische	-11.684
▁muslimische	-11.684
▁normal	-11.684
▁parallel	-11.684
▁prahl	-11.684
▁prunkvolle	-11.684
▁ragt	-11.684
▁renovier	-11.684
▁schlummert	-11.684
▁schwanger	-11.684
▁senffarbene	-11.684
▁ungepflegte	-11.684
▁verhindern	-11.684
▁verzerrte	-11.684
▁vorliest	-11.684
▁zerrissene	-11.684
Goalie	-11.684
ohlen	-11.684
▁Berufs	-11.684
▁Matsch	-11.684
▁Pendler	-11.684
▁Scheitel	-11.684
▁Seetang	-11.684
▁neigt	-11.684
▁saust	-11.684
▁Chinese	-11.684
▁Cricket	-11.684
▁Hochzeitsfoto	-11.684
▁KitchenAid	-11.684
▁Match	-11.684
▁Maulesel	-11.684
▁Notebook	-11.684
▁Paintball	-11.684
▁Steinstufen	-11.684
▁Toast	-11.684
▁erwischen	-11.684
Freiheitsstatue	-11.684
▁Enkel	-11.684
▁Kapuzenjacke	-11.684
▁Kino	-11.684
▁Leitung	-11.684
▁Truppe	-11.684
Piercing	-11.684
▁Dampf	-11.684
▁Wohnmobil	-11.684
▁angelehnt	-11.684
▁lötet	-11.684
▁Bierflaschen	-11.684
▁Blut	-11.684
▁Cockpit	-11.684
▁Ernte	-11.684
▁Schneeengel	-11.684
▁Spiderman	-11.684
▁stutz	-11.684
auptsä	-11.684
kolle	-11.684
▁Küchentheke	-11.684
▁Schokoladeneis	-11.684
▁grob	-11.684
▁Happen	-11.6841
▁Kunstmuseum	-11.6841
▁Staubwolke	-11.6841
▁knietief	-11.6841
lugt	-11.6841
▁Langarmhemd	-11.6841
▁Insekt	-11.6841
▁Shop	-11.6841
höhe	-11.6841
▁Nacken	-11.6841
▁Capri	-11.6841
▁Deere	-11.6841
▁Gebäck	-11.6841
▁Tuba	-11.6841
▁Kombi	-11.6841
▁Kühlbox	-11.6841
▁Werbetafel	-11.6841
▁rasieren	-11.6841
▁angezeigt	-11.6841
play	-11.6841
▁Badesachen	-11.6841
▁Stepp	-11.6841
feder	-11.6841
▁Mütter	-11.6841
▁Einkaufen	-11.6841
▁Hafenbecken	-11.6841
▁Kunsthandwerk	-11.6841
▁prüfen	-11.6841
stufe	-11.6841
▁Heim	-11.6841
▁Seh	-11.6841
▁aufgemalt	-11.6841
▁nahöstliche	-11.6841
▁Flanellhemd	-11.6841
▁Talent	-11.6841
▁Dorfbewohner	-11.6841
▁Kokosnüsse	-11.6841
▁Notenständer	-11.6841
▁Skipiste	-11.6841
▁Barriere	-11.6841
▁Falke	-11.6841
▁Umschlag	-11.6841
▁Gummistiefel	-11.6841
▁Verwend	-11.6841
▁Meeresufer	-11.6841
Court	-11.6841
▁Knieschützer	-11.6841
▁Küchentisch	-11.6841
▁Rückhand	-11.6841
▁Laubbläser	-11.6841
▁Reinigungs	-11.6841
▁Notizbuch	-11.6841
▁großartige	-11.6841
▁eingegraben	-11.6841
▁Pokal	-11.6841
▁Cross	-11.6841
▁Holzpfahl	-11.6841
▁Schulbus	-11.6841
▁Prüfung	-11.6841
▁Vorhang	-11.6841
▁Wäscheleine	-11.6841
▁Bauprojekt	-11.6841
▁Action	-11.6841
▁Kleinbus	-11.6841
▁Spinnrad	-11.6841
▁Einzel	-11.6841
▁Müllbeutel	-11.6841
▁Schindel	-11.6841
▁Krücken	-11.6841
▁Laubhaufen	-11.6841
▁Pelzmantel	-11.6841
▁Waage	-11.6841
▁schließen	-11.6841
▁Taucherbrille	-11.6841
▁enthält	-11.6841
▁Schuhputzer	-11.6841
▁bestimmte	-11.6841
▁Verkehrsmittel	-11.6841
▁Treppengeländer	-11.6841
▁Wohnwagen	-11.6841
ausflug	-11.6841
▁Boxkampf	-11.6841
▁streiten	-11.6841
▁Solo	-11.6841
▁Ausblick	-11.6841
▁Essensverkäufer	-11.6841
personal	-11.6842
▁Protestschild	-11.6842
▁Fond	-11.6842
▁Windjacke	-11.6842
▁lunger	-11.6842
▁gehören	-11.6842
laufbahn	-11.6842
▁Plastikflasche	-11.6842
▁Jogginghose	-11.6842
▁Hör	-11.6842
Grundschulkinder	-11.6842
▁Dusche	-11.6842
stocher	-11.6842
▁unterbricht	-11.6842
▁Packung	-11.6842
▁hügelige	-11.6842
▁Lesen	-11.6842
Down	-11.6842
▁Hinterteil	-11.6842
oskop	-11.6842
▁Marine	-11.6842
▁Marsch	-11.6842
▁geduckt	-11.6842
▁Wäschekorb	-11.6843
wanderweg	-11.6843
▁Festzug	-11.6843
▁sägen	-11.6843
▁hier	-11.6843
▁Pub	-11.6843
▁Dunking	-11.6843
▁Sonnenhut	-11.6843
gegangen	-11.6843
▁verstreut	-11.6843
▁freundlich	-11.6843
▁Feuerleiter	-11.6843
ettungsschwimmer	-11.6843
sive	-11.6843
boy	-11.6843
▁Straßenlampe	-11.6843
▁Zune	-11.6843
▁Frisch	-11.6844
bagger	-11.6844
▁bewachsen	-11.6844
▁Glasflasche	-11.6844
▁Einheimische	-11.6844
▁Farm	-11.6844
▁gähnt	-11.6844
▁Stadtviertel	-11.6844
▁erhebt	-11.6844
▁Bustier	-11.6844
▁Steingebäude	-11.6844
▁gekreuzt	-11.6844
▁Bestellung	-11.6844
▁gestric	-11.6844
▁Backware	-11.6844
▁zusammengebaut	-11.6844
▁Hühner	-11.6844
▁Spielzeugpferd	-11.6844
▁getackelt	-11.6845
Bron	-11.6845
▁Löcher	-11.6845
dlen	-11.6845
▁Rückenschwimmen	-11.6845
▁Barren	-11.6845
▁verspritzt	-11.6845
▁Atem	-11.6845
chnitt	-11.6845
leine	-11.6845
▁Uniformierte	-11.6845
▁stramm	-11.6845
ampel	-11.6845
rünette	-11.6846
▁Schwung	-11.6846
▁Werkzeuge	-11.6846
▁Haarnetz	-11.6846
▁Meerwasser	-11.6846
▁Feuerwehrwagen	-11.6846
▁beschnüffelt	-11.6846
▁Eisskulptur	-11.6846
▁Basketballwurf	-11.6846
▁Holztür	-11.6847
▁Steinwand	-11.6847
▁Radfahren	-11.6847
▁Holzkiste	-11.6847
▁abwärts	-11.6847
streut	-11.6847
▁bellen	-11.6847
▁Blumentopf	-11.6847
kko	-11.6847
▁Schuhgeschäft	-11.6847
▁Darstell	-11.6848
▁Pos	-11.6848
▁Alltag	-11.6848
▁möglich	-11.6848
▁Misch	-11.6849
▁Wanderung	-11.6849
▁Angler	-11.6849
▁Gemüsemarkt	-11.6849
▁gefäl	-11.6849
▁befreit	-11.685
▁herauf	-11.685
▁Kickboxen	-11.685
▁wind	-11.685
▁Holzrampe	-11.6851
▁Schrauben	-11.6851
▁gewaschen	-11.6851
▁Saiten	-11.6851
▁darau	-11.6851
ierende	-11.6852
▁Sportspiel	-11.6852
▁Reisen	-11.6853
▁Latzhose	-11.6853
▁Straßenschild	-11.6853
haut	-11.6854
▁Mich	-11.6854
▁bewer	-11.6854
live	-11.6855
▁sumpfige	-11.6855
▁Spüle	-11.6855
▁Hasen	-11.6855
▁geduldig	-11.6856
Jump	-11.6856
▁SpongeBob	-11.6856
▁Anlage	-11.6856
▁Offizier	-11.6856
▁behinderte	-11.6856
▁duscht	-11.6856
▁empor	-11.6856
▁typische	-11.6856
▁tägliche	-11.6856
▁verdienen	-11.6856
chlich	-11.6856
▁Tintenfisch	-11.6856
▁Country	-11.6856
▁wirbt	-11.6856
▁Armband	-11.6856
▁Flohmarkt	-11.6856
▁kuschel	-11.6856
▁Pulver	-11.6857
▁Basketballplatz	-11.6857
▁verschmierte	-11.6857
▁Schneehügel	-11.6857
▁Stammes	-11.6858
▁umgedreht	-11.6858
geschnallt	-11.6858
▁Halte	-11.6859
▁ausgefallene	-11.686
zuschlagen	-11.686
▁kauer	-11.686
▁Jeansrock	-11.686
▁Luftsprung	-11.6861
▁Bal	-11.6861
▁Blumenfeld	-11.6861
tvolle	-11.6861
▁schipp	-11.6862
fon	-11.6863
bst	-11.6863
▁wischen	-11.6864
▁Drähten	-11.6865
▁Melonen	-11.6865
▁Neun	-11.6865
▁Paddeln	-11.6865
▁Fire	-11.6865
▁befördert	-11.6865
▁Lenker	-11.6865
waren	-11.6865
▁Tennisbällen	-11.6865
▁Besucher	-11.6866
▁Piraten	-11.6866
lader	-11.6866
▁Beifahrer	-11.6866
▁Chirurgen	-11.6866
▁hinunterfährt	-11.6867
erbrot	-11.6867
▁musizieren	-11.6867
▁Sportplatz	-11.6869
▁verbringt	-11.687
▁vorübergehen	-11.687
▁Hosentasche	-11.6871
▁gern	-11.6872
▁Kopfball	-11.6873
▁hark	-11.6878
▁Fußballplatz	-11.6878
▁Keller	-11.6879
ierung	-11.688
▁Akt	-11.688
spr	-11.6881
▁Kimonos	-11.6882
wählen	-11.6882
eits	-11.6883
▁Krieg	-11.6883
▁stemm	-11.6884
▁Raster	-11.6887
aße	-11.6887
▁Wasserschlauch	-11.689
▁goldgelbe	-11.6891
▁Fahren	-11.6891
bergab	-11.6892
▁stürmische	-11.6894
▁Hebe	-11.6895
▁Hot	-11.6896
▁Schweißer	-11.6897
▁Kurs	-11.6898
▁Sooners	-11.6898
▁dös	-11.6899
lä	-11.69
wärmen	-11.6904
▁Kühen	-11.6907
▁Ohrhörern	-11.6907
▁Schärpen	-11.6907
▁Limonaden	-11.6907
▁nacheinander	-11.6908
▁herausragen	-11.6908
▁Gesellschafts	-11.6909
▁vorwärts	-11.691
▁ausgelegt	-11.6911
icherheitswesten	-11.6911
▁Anzeige	-11.6911
▁gebunden	-11.6911
▁Reh	-11.6914
▁Maultier	-11.6914
▁Lichter	-11.6916
▁Spinn	-11.6919
▁Gitarrespieler	-11.6924
▁drängel	-11.6926
bert	-11.6927
▁gesch	-11.6929
▁Papp	-11.6931
▁Schießen	-11.6934
▁Unterhaltungs	-11.6935
▁Bl	-11.6936
▁hochge	-11.6936
▁wachsen	-11.6938
▁bewach	-11.6939
▁Von	-11.694
training	-11.6942
karten	-11.6944
▁zugedeckt	-11.6944
▁Zügen	-11.695
Kostümen	-11.6951
▁Töpfen	-11.6953
ßen	-11.6954
▁zerr	-11.6954
sturm	-11.6958
zer	-11.6959
▁Bre	-11.6959
▁vorbeilaufen	-11.6963
start	-11.6965
▁plansch	-11.6968
▁Bauarbeiterhelm	-11.697
▁Cr	-11.697
ähnen	-11.6976
szenerie	-11.6984
▁breit	-11.6986
▁ersten	-11.6986
pferd	-11.6987
feil	-11.6989
gers	-11.699
uzzle	-11.6991
▁trockenes	-11.6992
▁Fahrradgeschäft	-11.6993
▁aufgebaut	-11.6993
▁Rotes	-11.6997
▁Fahrradt	-11.7001
tron	-11.7003
▁ganze	-11.7005
▁sollen	-11.7009
ichten	-11.7013
▁rasen	-11.7014
ufällig	-11.7017
sgebäude	-11.7021
▁eingepackte	-11.7026
fall	-11.7037
▁Bewegungen	-11.7037
töpfe	-11.7039
▁Aufgaben	-11.7039
▁Pap	-11.7039
▁nähern	-11.704
▁Snacks	-11.7045
alma	-11.7048
▁dünner	-11.7049
▁sichtbare	-11.7058
hy	-11.7062
▁zuguck	-11.7067
▁Sonnenschirmen	-11.7071
▁Wasserweg	-11.7079
platte	-11.7081
anten	-11.7083
▁irgendein	-11.7083
▁Bandmitgliedern	-11.7085
▁zelt	-11.7091
hang	-11.7094
Industriegebäude	-11.7109
▁fr	-11.711
▁angezogenes	-11.7111
▁hellhäutig	-11.7116
▁Eiern	-11.7119
ti	-11.7121
▁Brat	-11.7121
▁Live	-11.713
IN	-11.7135
▁lande	-11.7158
sort	-11.7159
▁Lande	-11.7161
▁Last	-11.7165
▁str	-11.7172
▁ernte	-11.7173
▁Regenschirme	-11.7174
ragende	-11.7174
▁tätowiert	-11.7181
▁Straßenarbeiten	-11.7189
heruntergefallen	-11.7194
▁Schwimmen	-11.7214
▁regenbogenfarb	-11.7215
▁Sesseln	-11.7219
▁Aufnahmen	-11.7219
▁Angeln	-11.7222
▁Fuße	-11.7232
▁Taxis	-11.7237
▁Retr	-11.7252
bietet	-11.7253
▁Hemdchen	-11.7258
▁Abs	-11.7263
hu	-11.7279
▁Busse	-11.7279
▁verschwommen	-11.7281
▁bestell	-11.729
▁handge	-11.7291
▁aufzunehmen	-11.7294
nach	-11.73
onne	-11.7305
▁Piers	-11.7322
▁Ford	-11.7324
▁bemalte	-11.7327
▁mittel	-11.7331
▁künstlerische	-11.7334
▁Har	-11.7334
▁Kekse	-11.7342
▁Rennhunde	-11.7342
▁Trage	-11.7346
▁eigene	-11.7356
▁Linien	-11.7364
▁Waldes	-11.7377
▁Tort	-11.7383
▁hängende	-11.7384
züge	-11.7396
▁Militärs	-11.74
oten	-11.7403
ump	-11.7406
▁Lego	-11.7409
Truck	-11.7411
Meter	-11.7417
oße	-11.7418
uf	-11.7418
hne	-11.7425
▁Schnauzer	-11.7436
dung	-11.7459
tu	-11.7468
▁gebückte	-11.7484
▁ausgef	-11.7489
Arbeitsplatz	-11.75
pfleg	-11.7507
▁bä	-11.7507
Cart	-11.7516
▁Motorrollern	-11.7542
▁Roben	-11.7543
▁fallende	-11.7548
Frauenvolleyball	-11.7552
▁Anzieh	-11.7568
▁kl	-11.7571
ndes	-11.7571
▁Ta	-11.7575
welle	-11.7616
ecke	-11.7635
▁Angelruten	-11.7636
▁Dingen	-11.7637
▁Seile	-11.7659
▁Objekten	-11.7677
cken	-11.7677
▁Ro	-11.7681
▁toll	-11.7686
▁tackel	-11.7698
egel	-11.7698
teilig	-11.7725
▁Hoop	-11.7726
▁Kan	-11.7732
▁weite	-11.7745
eilt	-11.7751
altestelle	-11.7759
▁wild	-11.7762
▁Sche	-11.7765
ringen	-11.7774
▁Baseballkappen	-11.778
zäh	-11.7791
▁Tu	-11.7801
arz	-11.781
▁schaff	-11.7848
unde	-11.7852
▁Zweig	-11.7858
▁Grillen	-11.7863
▁Spitzen	-11.7903
▁Gu	-11.7918
▁Matten	-11.7926
▁Ber	-11.7927
▁Spiele	-11.7942
käfig	-11.7946
leckt	-11.795
eckige	-11.7973
▁grasbewachsenes	-11.7986
ähne	-11.7988
klettert	-11.7992
▁professionelle	-11.7999
gelenk	-11.8019
▁Hu	-11.802
▁neues	-11.8027
liegende	-11.8028
zeit	-11.8038
gruppen	-11.8059
▁wer	-11.8068
Afroamerikanerin	-11.8072
holt	-11.8073
Akkordeonspieler	-11.8076
▁tragend	-11.8082
▁öffentlich	-11.8083
▁Blasinstrumente	-11.8095
▁Frühstück	-11.81
▁Bud	-11.8105
▁angeleint	-11.8109
lad	-11.8116
mut	-11.813
▁prächtige	-11.8135
spielerinnen	-11.8146
▁Reitern	-11.8173
szeit	-11.8195
▁Gr	-11.8198
zeichnung	-11.8202
▁Teppiche	-11.8212
les	-11.8225
▁Pul	-11.8225
▁wenige	-11.8249
laufende	-11.8251
▁Kenn	-11.8254
wä	-11.8263
rzt	-11.8285
▁falsche	-11.8298
ora	-11.8299
▁einzigartige	-11.8388
▁Sub	-11.8406
▁redend	-11.843
▁Su	-11.8438
▁Magazin	-11.8446
kühlen	-11.8466
▁Son	-11.848
▁künstliche	-11.8483
▁verbundene	-11.8489
opf	-11.85
▁feuer	-11.8509
▁bessere	-11.8518
go	-11.8542
▁Strandes	-11.8583
dium	-11.8583
▁Pferdes	-11.8583
radfahrer	-11.8619
out	-11.8636
▁lebhaft	-11.8647
▁Fahr	-11.8728
▁professionell	-11.8772
▁still	-11.8787
messe	-11.8787
▁Chan	-11.8803
▁afro	-11.8816
▁Ti	-11.8822
▁besonder	-11.8831
führenden	-11.884
ul	-11.8842
▁bl	-11.8844
▁Rohre	-11.8846
fort	-11.8849
▁senkrecht	-11.8864
fahr	-11.887
geschnittene	-11.8871
▁üppig	-11.89
denken	-11.8903
▁Lei	-11.8907
▁traurige	-11.8919
aube	-11.8942
Ha	-11.8955
Ma	-11.8969
langen	-11.8978
ide	-11.8985
schüler	-11.8989
eburtstagskuchen	-11.899
equi	-11.8999
wend	-11.903
▁wartende	-11.9031
▁Rund	-11.9035
▁meist	-11.9035
▁komisch	-11.9048
schw	-11.9072
farbige	-11.9104
klapp	-11.9108
▁Stoffe	-11.9116
puppe	-11.9139
▁kunstvoll	-11.9151
▁festlich	-11.9175
▁Pol	-11.9184
▁Ja	-11.9242
if	-11.9272
▁Kal	-11.9272
reckt	-11.9273
ilitärangehörige	-11.9275
gehört	-11.9284
▁größer	-11.9288
▁interessant	-11.9345
St	-11.9348
▁Sc	-11.9365
zieren	-11.9368
▁vierte	-11.937
▁Lea	-11.9374
erte	-11.9381
▁gemeinsame	-11.9397
▁best	-11.9416
▁grinsende	-11.9426
saal	-11.9447
▁Pi	-11.945
▁Asiatisch	-11.9479
▁niedrig	-11.9485
▁Mikroskope	-11.9485
gemacht	-11.9491
ski	-11.9491
ruck	-11.9501
spritzen	-11.952
▁Plan	-11.9524
parcours	-11.9526
▁eigen	-11.9532
Sandplatz	-11.9545
▁scheu	-11.955
letterausrüstung	-11.9575
▁verschwommene	-11.9591
bringen	-11.9595
▁Fernseh	-11.9596
▁kor	-11.9598
▁farb	-11.9604
hängen	-11.9629
▁wei	-11.964
▁verziert	-11.966
back	-11.969
suchen	-11.9703
kinder	-11.9709
fisch	-11.972
elfer	-11.9722
stätte	-11.9741
▁Gedenk	-11.9741
▁informell	-11.9759
▁Au	-11.9764
achi	-11.9766
ond	-11.9771
reifen	-11.9787
▁je	-11.9789
▁Industrie	-11.9811
bungs	-11.9814
▁metall	-11.9829
haften	-11.9851
Basketball	-11.9858
▁Wal	-11.9859
eier	-11.9867
appe	-11.9869
llt	-11.987
äht	-11.9875
treiben	-11.9877
händige	-11.9885
tatue	-11.9889
blickt	-11.9896
ritt	-11.9905
urbane	-11.9909
▁Backstein	-11.9914
▁organ	-11.993
du	-11.9932
fällig	-11.9933
ateinamerikan	-11.9939
stehende	-11.9941
eth	-11.9953
isierte	-11.9955
▁erh	-11.9964
klettern	-11.997
stimmung	-11.9987
▁träg	-11.9989
steht	-11.9991
turn	-11.9991
gedeckte	-12.0002
yo	-12.0004
helmen	-12.0005
▁Skateboardfahre	-12.0013
spitze	-12.0014
▁Meeresfrüchte	-12.0015
▁Wunderkerze	-12.0015
▁Muschel	-12.0016
▁Bänder	-12.0016
stehen	-12.0018
karte	-12.0023
▁Töpfe	-12.0023
▁Züge	-12.0023
▁Schutzweste	-12.0028
Skate	-12.0028
▁Wasserpistole	-12.003
▁Laterne	-12.0031
▁seh	-12.0031
▁herrlich	-12.0032
▁Hinterbeine	-12.0033
▁knie	-12.0034
▁Gläser	-12.0034
▁gepunktete	-12.0035
▁hellgrüne	-12.0036
Car	-12.0037
▁Turnschuhe	-12.0037
▁leuchten	-12.0039
gehängt	-12.0039
▁alber	-12.004
▁habe	-12.0041
▁arme	-12.0041
▁Ware	-12.0044
sagt	-12.0045
▁Design	-12.0049
▁Sandale	-12.005
▁lan	-12.0059
hüte	-12.0069
bereit	-12.007
Spring	-12.0072
holz	-12.0073
gebunden	-12.0074
geschoben	-12.0074
lapp	-12.0074
▁erste	-12.0075
▁Empfang	-12.0075
▁Karneval	-12.0075
Anzeige	-12.0076
vollständig	-12.0079
Turnier	-12.0079
karierte	-12.0079
▁Gesellschaft	-12.008
schirm	-12.0081
▁Urlaub	-12.0082
▁Spar	-12.0082
Armee	-12.0083
Texas	-12.0083
klaren	-12.0084
Klasse	-12.0084
hohen	-12.0084
Must	-12.0084
putzen	-12.0084
Roll	-12.0085
Unter	-12.0085
Fest	-12.0085
gefüllt	-12.0085
zeigt	-12.0085
füttert	-12.0085
Plakat	-12.0086
Arena	-12.0086
Bekleidung	-12.0086
Bahnsteig	-12.0086
Volleyball	-12.0086
Lkw	-12.0087
Overall	-12.0087
Wettkampf	-12.0087
Sport	-12.0087
Lauf	-12.0087
Flugzeug	-12.0087
Uniform	-12.0088
Tasche	-12.0088
Schaukel	-12.0088
städtische	-12.0088
Kunststück	-12.0088
Boot	-12.0088
trinken	-12.0088
Maschine	-12.0088
Schwimmbecken	-12.0088
trägt	-12.0088
spricht	-12.0088
Weiß	-12.0088
▁Rollerblade	-12.0089
Ball	-12.0089
Eis	-12.0089
Mann	-12.0089
Bahnhof	-12.0091
gräbt	-12.0091
▁Short	-12.0091
wettkampf	-12.0094
reise	-12.0095
▁Afro	-12.0095
presst	-12.0098
anke	-12.01
wänden	-12.0104
▁Tennisspiel	-12.0105
werb	-12.0107
▁reiß	-12.0107
ühlt	-12.0109
▁Cl	-12.0112
fang	-12.0112
▁Rugbyspiel	-12.0114
▁Pfann	-12.0114
▁Pirat	-12.0115
robe	-12.0116
schreib	-12.0116
▁Motorradrenn	-12.0117
üstung	-12.0118
▁Tennisschuh	-12.0118
wasch	-12.012
▁Passant	-12.0121
Ein	-12.0122
stände	-12.0123
▁Kelle	-12.0123
▁Gi	-12.0123
unter	-12.0123
Hosen	-12.0124
Jungen	-12.0125
▁interagier	-12.0125
▁Afrika	-12.0127
▁Spielgerät	-12.0127
rückt	-12.0128
▁kahlköpfige	-12.0129
▁Wartungs	-12.0132
▁Gewicht	-12.0135
▁Sei	-12.0136
▁mal	-12.0137
brot	-12.014
gelbes	-12.014
körper	-12.0142
uckt	-12.0144
▁Fir	-12.0145
ügen	-12.0145
ierend	-12.0145
ulen	-12.0146
kind	-12.0146
ilden	-12.0147
polizist	-12.0147
▁Zauber	-12.0148
brunnen	-12.0148
▁Punk	-12.0148
▁ni	-12.0148
cool	-12.0149
thek	-12.0149
becken	-12.015
führung	-12.015
ländische	-12.0151
klammert	-12.0152
schlacht	-12.0152
▁Bull	-12.0153
▁bastel	-12.0153
ällen	-12.0154
Wel	-12.0154
hilf	-12.0155
ünden	-12.0155
trommel	-12.0155
▁feg	-12.0156
▁Latz	-12.0157
▁strick	-12.0158
drängt	-12.0159
▁Bären	-12.0161
▁langärm	-12.0162
itzern	-12.0162
orhüter	-12.0162
axi	-12.0163
▁Absatz	-12.0165
stäben	-12.0166
AM	-12.0167
laster	-12.0168
▁Kirmes	-12.0168
▁interess	-12.0169
tunnel	-12.0169
▁Fü	-12.0169
kappe	-12.0169
burg	-12.0169
raktor	-12.017
balken	-12.017
sänger	-12.017
schleudert	-12.017
▁Karussel	-12.0172
händler	-12.0172
restaurant	-12.0172
beutel	-12.0172
club	-12.0172
riseur	-12.0172
stadt	-12.0172
äß	-12.0172
senkt	-12.0172
▁Bowl	-12.0172
▁Woll	-12.0172
Schlagman	-12.0173
östliche	-12.0173
ädt	-12.0173
schriebene	-12.0173
handlung	-12.0173
wald	-12.0173
▁Riesen	-12.0173
▁Rummel	-12.0173
▁Zi	-12.0173
rchester	-12.0173
asino	-12.0173
twa	-12.0173
sorten	-12.0173
flieger	-12.0173
kurv	-12.0173
eisenbahn	-12.0173
eibliche	-12.0173
schwarm	-12.0173
koffer	-12.0173
fried	-12.0173
strümpfe	-12.0173
brocken	-12.0173
student	-12.0173
▁Bäcker	-12.0173
stift	-12.0174
bewohner	-12.0174
gebilde	-12.0174
▁Bürger	-12.0174
▁Neoprenanz	-12.0174
▁Schmied	-12.0174
bühne	-12.0174
gierig	-12.0174
▁synchron	-12.0174
▁Eng	-12.0174
artoffel	-12.0174
▁Stachel	-12.0174
▁Mickey	-12.0174
▁Wurzel	-12.0174
aliforni	-12.0174
astellfarben	-12.0174
ograph	-12.0174
rchäolog	-12.0174
▁British	-12.0174
▁Broad	-12.0174
▁majestätisch	-12.0174
Barbecue	-12.0174
Boy	-12.0174
Kitty	-12.0174
Kreuzfahrtschiff	-12.0174
Twister	-12.0174
agle	-12.0174
aktivität	-12.0174
anhänger	-12.0174
brenner	-12.0174
bücher	-12.0174
eifrig	-12.0174
einrichtung	-12.0174
fleisch	-12.0174
fügt	-12.0174
gitarrenähnliche	-12.0174
häuschen	-12.0174
höhle	-12.0174
kulisse	-12.0174
kulturelle	-12.0174
marathon	-12.0174
mbiente	-12.0174
objektiv	-12.0174
ootsanlegestelle	-12.0174
packung	-12.0174
podest	-12.0174
rnstein	-12.0174
schuld	-12.0174
spaziergang	-12.0174
stöpsel	-12.0174
system	-12.0174
teppich	-12.0174
uadbike	-12.0174
uadraten	-12.0174
xponat	-12.0174
zahn	-12.0174
zapfen	-12.0174
▁Abfälle	-12.0174
▁Apotheke	-12.0174
▁Arcade	-12.0174
▁Arkade	-12.0174
▁Aschenbahn	-12.0174
▁Astronauten	-12.0174
▁Beisammensein	-12.0174
▁Beobachter	-12.0174
▁Besteck	-12.0174
▁Blondine	-12.0174
▁Boje	-12.0174
▁Buntstift	-12.0174
▁Burka	-12.0174
▁Bühnenauftritt	-12.0174
▁Cafeteria	-12.0174
▁Camcorder	-12.0174
▁Canyon	-12.0174
▁Chefkoch	-12.0174
▁Chinatown	-12.0174
▁Delfin	-12.0174
▁Donuts	-12.0174
▁Dragster	-12.0174
▁Eiskrem	-12.0174
▁Ellenbogen	-12.0174
▁Erinnerung	-12.0174
▁Explosion	-12.0174
▁Fahrgast	-12.0174
▁Festumzug	-12.0174
▁Flugbegleit	-12.0174
▁Flöße	-12.0174
▁Fotoshooting	-12.0174
▁Frankreich	-12.0174
▁Föhn	-12.0174
▁Galerie	-12.0174
▁Gastronomiebe	-12.0174
▁Gebäudeeingang	-12.0174
▁Golfschläger	-12.0174
▁Gottesdienst	-12.0174
▁Gärtner	-12.0174
▁Hahn	-12.0174
▁Headset	-12.0174
▁Heimatland	-12.0174
▁Heimwerker	-12.0174
▁Hochdruckreinig	-12.0174
▁Hollister	-12.0174
▁Hängegleiter	-12.0174
▁Interessantes	-12.0174
▁Internet	-12.0174
▁Irgendein	-12.0174
▁Jalousie	-12.0174
▁Jongleur	-12.0174
▁Jonglier	-12.0174
▁Kartoffelchip	-12.0174
▁Kirchenchor	-12.0174
▁Kliff	-12.0174
▁Kultur	-12.0174
▁Käfer	-12.0174
▁Landwirt	-12.0174
▁Latexhandschuh	-12.0174
▁Leitplanke	-12.0174
▁Luftmatratze	-12.0174
▁Meeresstrand	-12.0174
▁Mega	-12.0174
▁Megaphon	-12.0174
▁Mosaik	-12.0174
▁Moschee	-12.0174
▁Münztelefon	-12.0174
▁National	-12.0174
▁Ninja	-12.0174
▁Ollie	-12.0174
▁Parkettboden	-12.0174
▁Pelikan	-12.0174
▁Problem	-12.0174
▁Prozession	-12.0174
▁Rassel	-12.0174
▁Ritual	-12.0174
▁Rüschen	-12.0174
▁Sauna	-12.0174
▁Schlammpfütze	-12.0174
▁Schlüssel	-12.0174
▁Schnappschuss	-12.0174
▁Schnüre	-12.0174
▁Schnürsenkel	-12.0174
▁Serviette	-12.0174
▁Sicherungsseil	-12.0174
▁Skelett	-12.0174
▁Softdrink	-12.0174
▁Spirituosen	-12.0174
▁Sprünge	-12.0174
▁Stroboskoplicht	-12.0174
▁Tamburin	-12.0174
▁Text	-12.0174
▁Toyota	-12.0174
▁Treffen	-12.0174
▁Trägershirt	-12.0174
▁Töchter	-12.0174
▁Ukulele	-12.0174
▁Umarmung	-12.0174
▁Unkraut	-12.0174
▁Vegas	-12.0174
▁Vergrößerungsgl	-12.0174
▁Verwunde	-12.0174
▁Vorschlaghammer	-12.0174
▁Wasserpfütze	-12.0174
▁Wochenmarkt	-12.0174
▁Wok	-12.0174
▁Zahnspange	-12.0174
▁Zeigefinger	-12.0174
▁Zirkus	-12.0174
▁Zugabteil	-12.0174
▁Zweck	-12.0174
▁attackieren	-12.0174
▁aufregende	-12.0174
▁ausführt	-12.0174
▁belegte	-12.0174
▁beruhigt	-12.0174
▁brennt	-12.0174
▁buschige	-12.0174
▁chirurgische	-12.0174
▁darum	-12.0174
▁dramatisch	-12.0174
▁durchnässt	-12.0174
▁eingeschaltete	-12.0174
▁entscheiden	-12.0174
▁erkundet	-12.0174
▁erschöpft	-12.0174
▁erörter	-12.0174
▁feierliche	-12.0174
▁frischgebackene	-12.0174
▁gebräunte	-12.0174
▁gefertigt	-12.0174
▁getraut	-12.0174
▁gewebte	-12.0174
▁gewinnt	-12.0174
▁gewundene	-12.0174
▁gigantische	-12.0174
▁glättet	-12.0174
▁grasbedeckte	-12.0174
▁gruselige	-12.0174
▁hausgemachte	-12.0174
▁herzförmige	-12.0174
▁hingesetzt	-12.0174
▁hispan	-12.0174
▁hätte	-12.0174
▁italienische	-12.0174
▁lebendige	-12.0174
▁neonfarbene	-12.0174
▁patriotische	-12.0174
▁patrouillier	-12.0174
▁pelzige	-12.0174
▁prakti	-12.0174
▁präsentieren	-12.0174
▁purpurrote	-12.0174
▁reibt	-12.0174
▁schottische	-12.0174
▁schubsen	-12.0174
▁schäbig	-12.0174
▁schöpft	-12.0174
▁skaten	-12.0174
▁stattfinden	-12.0174
▁strömen	-12.0174
▁transportieren	-12.0174
▁unterirdische	-12.0174
▁veranstalte	-12.0174
▁verborgen	-12.0174
▁verdreckte	-12.0174
▁verregnete	-12.0174
▁verschlungene	-12.0174
▁verteidigt	-12.0174
▁verwahrloste	-12.0174
▁vierbeinige	-12.0174
▁vornübergebeugt	-12.0174
▁wundervolle	-12.0174
▁wütend	-12.0174
▁zerlumpte	-12.0174
▁ängstlich	-12.0174
bruch	-12.0174
lehrer	-12.0174
▁Agility	-12.0174
▁Berlin	-12.0174
▁Business	-12.0174
▁Elasthan	-12.0174
▁Feinkost	-12.0174
▁Flach	-12.0174
▁Holzfäller	-12.0174
▁Keramik	-12.0174
▁Kontrabass	-12.0174
▁Maurer	-12.0174
▁Mixer	-12.0174
▁Panda	-12.0174
▁Pilz	-12.0174
▁Prinzessin	-12.0174
▁Schottenr	-12.0174
▁Stäbe	-12.0174
▁bergauf	-12.0174
▁fleißig	-12.0174
▁furcht	-12.0174
▁grell	-12.0174
▁lebende	-12.0174
▁wirbeln	-12.0174
berdachung	-12.0174
grenzt	-12.0174
laib	-12.0174
näuel	-12.0174
schläuche	-12.0174
▁Aussichtspunkt	-12.0174
▁Champagner	-12.0174
▁Esswaren	-12.0174
▁Lolli	-12.0174
▁Pflege	-12.0174
▁Richter	-12.0174
▁Samurai	-12.0174
▁Shopping	-12.0174
▁Verkleiden	-12.0174
▁angestr	-12.0174
▁baumbestandene	-12.0174
▁bittet	-12.0174
▁pfirsichfarben	-12.0174
▁schlachtet	-12.0174
▁schnitzen	-12.0174
▁tauchen	-12.0174
▁weht	-12.0174
apparat	-12.0174
zusammenpassende	-12.0174
▁Barbie	-12.0174
▁Freiwillige	-12.0174
▁Gepäckstücken	-12.0174
▁Gleich	-12.0174
▁Hochzeitstag	-12.0174
▁Irokesenfrisur	-12.0174
▁Kartoffeln	-12.0174
▁Leichtathletik	-12.0174
▁Ritter	-12.0174
▁Tastatur	-12.0174
▁aufgewühlte	-12.0174
▁drauf	-12.0174
▁geblockt	-12.0174
▁gewandt	-12.0174
▁spannen	-12.0174
▁teure	-12.0174
zapft	-12.0174
▁Filmset	-12.0174
▁Island	-12.0174
▁Schwän	-12.0174
▁Sonnenanbeter	-12.0174
▁Zementmischer	-12.0174
▁behandelt	-12.0174
▁wichtige	-12.0174
bänken	-12.0174
umhang	-12.0174
▁Biergläsern	-12.0174
▁Frack	-12.0174
▁Laternenpfahl	-12.0174
▁Weizen	-12.0174
▁betreut	-12.0174
▁britische	-12.0174
▁fremdländische	-12.0174
▁sagen	-12.0174
▁Klettergurt	-12.0174
▁Paddelboot	-12.0174
▁Pappkarton	-12.0174
▁Pappteller	-12.0174
▁Schnellboot	-12.0174
▁Sumpfgebiet	-12.0174
▁Taille	-12.0174
▁föhnt	-12.0174
▁moos	-12.0174
selungs	-12.0174
▁englische	-12.0174
▁heranrollen	-12.0174
▁Nahrung	-12.0174
▁glätten	-12.0174
▁Kapuzenteil	-12.0174
▁Küstenlinie	-12.0174
▁Abfluss	-12.0174
▁Corgi	-12.0174
▁Gewächshaus	-12.0174
▁Puma	-12.0174
▁Limo	-12.0174
vogel	-12.0174
vorführung	-12.0174
▁Fließen	-12.0174
▁Rampenlicht	-12.0174
▁Schmerzen	-12.0174
▁hacken	-12.0174
▁stoppen	-12.0174
lyer	-12.0174
▁Spritzwasser	-12.0174
nstert	-12.0174
▁Wanderstöcke	-12.0174
▁blutende	-12.0174
▁testen	-12.0174
speist	-12.0174
▁Freiluftkonzert	-12.0174
▁Transportmittel	-12.0174
Feuerwerkskörper	-12.0174
▁Korken	-12.0174
▁Schneeflocke	-12.0174
▁Erdbeere	-12.0174
erbsen	-12.0174
nudel	-12.0174
▁Küchenboden	-12.0174
▁Tabak	-12.0174
▁geeignete	-12.0174
▁riech	-12.0174
▁signier	-12.0174
▁Unterarm	-12.0174
▁glatte	-12.0174
▁Notfall	-12.0174
▁Orgel	-12.0174
▁Abschleppwagen	-12.0174
▁Totenkopf	-12.0174
produkte	-12.0174
▁Drahtseil	-12.0174
▁Minne	-12.0174
bissen	-12.0174
quetscht	-12.0174
▁Rentier	-12.0174
▁Silber	-12.0174
▁rechteckige	-12.0174
▁Aufnahmestudio	-12.0174
▁schwitzt	-12.0174
▁Collegestudent	-12.0174
▁Salon	-12.0174
▁unscharfe	-12.0174
▁Diashow	-12.0174
▁diverse	-12.0174
▁finden	-12.0174
▁Linse	-12.0174
▁erinner	-12.0174
▁Lakers	-12.0174
zange	-12.0174
▁Fertig	-12.0174
▁Frosch	-12.0174
▁Sonnenhüte	-12.0174
▁Spruchbänder	-12.0174
▁Fechtwettkampf	-12.0174
▁Schutthaufen	-12.0174
▁Sparring	-12.0174
▁Friseursalon	-12.0174
▁Naturprodukte	-12.0174
▁Blutdruck	-12.0174
▁rodel	-12.0174
▁Abdeckung	-12.0174
▁Rollkoffer	-12.0174
▁herausgeputzt	-12.0174
▁Soda	-12.0174
fäng	-12.0174
▁Picknickbank	-12.0174
▁ausgelassen	-12.0174
▁beugen	-12.0174
▁außergewöhnlich	-12.0174
krüge	-12.0174
▁Drahtzaun	-12.0174
▁Element	-12.0174
▁quadratische	-12.0174
omet	-12.0174
▁Jogginganzug	-12.0174
▁Sonnenaufgang	-12.0174
▁Tonstudio	-12.0174
▁Steindenkmal	-12.0174
▁vielfältige	-12.0174
▁Grube	-12.0174
▁Tandem	-12.0174
▁Audi	-12.0174
▁Eierkuchen	-12.0174
▁Halstücher	-12.0174
▁Mittelpunk	-12.0174
▁Steaks	-12.0174
▁leisten	-12.0174
▁Amish	-12.0174
▁Werferhügel	-12.0174
orld	-12.0174
ough	-12.0174
geklappte	-12.0174
▁Weihnachtszeit	-12.0174
Five	-12.0174
runzelt	-12.0174
▁zerkleinert	-12.0174
rchitekt	-12.0174
▁Abfall	-12.0174
▁Pferderücken	-12.0174
▁Rummelplatz	-12.0174
jenige	-12.0174
▁herausgestreckt	-12.0174
▁Meereswelle	-12.0174
▁Schlittenhunde	-12.0174
angestellte	-12.0174
▁Zehen	-12.0174
▁Einsatzkräfte	-12.0174
▁VW	-12.0174
ärmeligen	-12.0175
▁Pfau	-12.0175
▁backen	-12.0175
cap	-12.0175
▁Korbleger	-12.0175
▁Mustang	-12.0175
▁Gesichtsschutz	-12.0175
ausstattung	-12.0175
▁Polizeiauto	-12.0175
▁Vierergruppe	-12.0175
Talkie	-12.0175
▁Würstchen	-12.0175
▁Bügel	-12.0175
▁scherz	-12.0175
▁Bassist	-12.0175
▁Zucker	-12.0175
▁Werk	-12.0175
▁Kunstprojekt	-12.0175
▁würz	-12.0175
▁Schrott	-12.0175
▁Cir	-12.0175
▁Sprühdose	-12.0175
▁Wohnhäuser	-12.0175
▁angeschaut	-12.0175
ßten	-12.0175
▁Laderampe	-12.0175
▁Ballontier	-12.0175
▁süd	-12.0175
▁Asphaltstraße	-12.0175
▁riss	-12.0175
▁Sonnentag	-12.0175
▁Rockkonzert	-12.0175
▁Schlammgrube	-12.0175
oamerikaner	-12.0175
▁Wii	-12.0175
▁eingelassen	-12.0175
▁Transportwagen	-12.0175
startet	-12.0175
▁Herbsttag	-12.0175
▁Vorderrad	-12.0175
▁entdeckt	-12.0175
▁Theaterstück	-12.0175
▁gemähte	-12.0175
▁rette	-12.0175
pool	-12.0175
▁BMW	-12.0175
▁Papierteller	-12.0175
▁Plastikrutsche	-12.0175
termin	-12.0175
▁Musikfestival	-12.0175
▁Sattelzug	-12.0175
▁Tunika	-12.0175
bildet	-12.0175
schuss	-12.0175
▁verbeug	-12.0175
kuppe	-12.0175
▁Haube	-12.0175
berschlag	-12.0176
▁Plastikbecher	-12.0176
▁Plattenspieler	-12.0176
▁erscheint	-12.0176
▁Abschlag	-12.0176
▁Müllhaufen	-12.0176
aufdruck	-12.0176
zone	-12.0176
▁Gruppenfoto	-12.0176
▁Imbissstand	-12.0176
▁Weinflasche	-12.0176
lesen	-12.0176
▁Taschenlampe	-12.0176
▁Brand	-12.0176
▁nachgemachte	-12.0176
▁herabhängen	-12.0176
▁Tarnmuster	-12.0176
latte	-12.0176
▁Kürbisfeld	-12.0176
▁Fra	-12.0176
▁Hinterrad	-12.0176
ukett	-12.0176
▁Deli	-12.0176
▁Farn	-12.0176
▁Gartenwerkzeug	-12.0176
▁Sense	-12.0176
▁Löschfahrzeug	-12.0176
▁Bücherei	-12.0176
urchschnittlich	-12.0176
MA	-12.0176
fordert	-12.0176
Münzfernsprecher	-12.0176
▁Tackl	-12.0176
▁Brustkorb	-12.0177
albnackte	-12.0177
▁Ausland	-12.0177
▁beschreib	-12.0177
dose	-12.0177
▁Gruppenbild	-12.0177
▁bespritzen	-12.0177
▁Ahorn	-12.0177
voller	-12.0177
▁Automat	-12.0177
▁Gefährt	-12.0177
▁Seesack	-12.0177
▁Puder	-12.0177
lären	-12.0177
▁Schuljunge	-12.0177
▁Pritsche	-12.0177
▁Hero	-12.0177
▁Jet	-12.0177
taucher	-12.0177
▁Handgriff	-12.0177
▁Teppichboden	-12.0177
▁Oben	-12.0177
▁Kö	-12.0177
▁dreirädrige	-12.0177
perücke	-12.0177
▁abzufangen	-12.0177
▁Plastikstuhl	-12.0177
▁Obstkarren	-12.0177
▁Skimboarde	-12.0177
unfall	-12.0178
▁Schildkappe	-12.0178
▁Medizinische	-12.0178
▁Insasse	-12.0178
▁Schwar	-12.0178
▁Spielzeuglaster	-12.0178
strom	-12.0178
▁verrichtet	-12.0178
▁hochgeschobene	-12.0178
▁Skistöcken	-12.0179
äkelt	-12.0179
▁ignoriert	-12.0179
▁qualmt	-12.0179
▁darstellt	-12.0179
▁gebadet	-12.0179
▁Gitarrenspieler	-12.0179
▁Seilrutsche	-12.0179
▁meditiert	-12.0179
aku	-12.0179
▁Kauf	-12.0179
▁Bahnarbeiter	-12.0179
lstreifen	-12.0179
ugenschein	-12.0179
▁Spät	-12.0179
▁Eisläufer	-12.0179
▁Hab	-12.0179
▁Metallgeländer	-12.0179
▁Hindernisse	-12.0179
▁Masc	-12.018
▁Cad	-12.018
▁Drachenkostüm	-12.018
▁Haarsalon	-12.018
▁Rest	-12.018
▁Geländemaschine	-12.018
▁rastet	-12.018
▁Metallschüssel	-12.018
▁hochspringen	-12.018
▁Bowlingspieler	-12.0181
KE	-12.0181
igan	-12.0181
▁versetzt	-12.0181
pumpe	-12.0181
▁Side	-12.0181
▁DS	-12.0181
▁Kochjacke	-12.0182
itar	-12.0182
▁Fensterbank	-12.0182
▁nachdenklich	-12.0182
▁Wandtafel	-12.0182
▁aufbäumende	-12.0182
▁Stuhlreihe	-12.0182
▁Port	-12.0182
wechsel	-12.0183
▁Krüge	-12.0183
köpfen	-12.0183
▁Gast	-12.0183
▁Holzgebäude	-12.0183
▁besteigen	-12.0183
ity	-12.0183
▁Fau	-12.0184
▁Big	-12.0184
▁verläuft	-12.0184
▁spi	-12.0184
▁Bühnenlicht	-12.0184
▁Spielautomaten	-12.0184
▁erklettert	-12.0185
▁hochgehalten	-12.0185
▁Stadtgebiet	-12.0185
▁unbe	-12.0185
▁Fußballnetz	-12.0185
arbeitung	-12.0185
▁Musikstück	-12.0185
▁Maus	-12.0185
▁Gartenstühlen	-12.0185
zusammengedrängt	-12.0186
▁Sprungtritt	-12.0186
drücken	-12.0186
▁Sportteam	-12.0186
▁Spritz	-12.0186
▁zusammengerollt	-12.0186
Touch	-12.0186
▁Geschirrspüler	-12.0186
▁Sumoringer	-12.0186
▁Blumendruck	-12.0187
fließen	-12.0187
ändert	-12.0187
meter	-12.0187
▁eisige	-12.0187
▁gestürzt	-12.0187
▁errichten	-12.0187
schlagen	-12.0187
▁Pä	-12.0187
▁Bandkollegen	-12.0188
▁Medien	-12.0188
▁Hundeschlitten	-12.0188
pflanzen	-12.0188
sjacke	-12.0188
igung	-12.0188
▁Windel	-12.0188
▁Kaffeetisch	-12.0188
▁Schülerinnen	-12.0188
▁Füll	-12.0189
▁Spieß	-12.0189
▁untergehende	-12.0189
▁Bodyboard	-12.0189
▁Zeltplatz	-12.019
▁Bergwand	-12.019
▁Regenjacke	-12.019
▁lässig	-12.019
würfel	-12.019
▁Glasur	-12.019
boarder	-12.0191
▁Engelskostüm	-12.0191
▁ausstreckt	-12.0191
▁Binde	-12.0191
schirmen	-12.0191
ängel	-12.0191
▁Blickfeld	-12.0191
▁Zugfahrt	-12.0191
▁Fach	-12.0191
▁ernste	-12.0192
▁Marktstraße	-12.0192
▁hochzuheben	-12.0193
schrank	-12.0193
gebastelte	-12.0193
▁Baseballplatz	-12.0193
▁Gemüsestand	-12.0193
▁Radweg	-12.0194
▁angegriffen	-12.0194
▁angekettet	-12.0194
▁Viertel	-12.0194
▁abgelegt	-12.0195
ransparente	-12.0196
▁Eisstand	-12.0196
▁Frühlings	-12.0196
▁Sonnenblume	-12.0196
▁hellrosafarbene	-12.0196
Geburtstagsfeier	-12.0197
▁Jazz	-12.0197
▁Attraktion	-12.0197
▁Markierung	-12.0197
▁Whirlpool	-12.0197
▁Farbstiften	-12.0197
▁Frucht	-12.0197
▁gekauft	-12.0197
▁pflücken	-12.0197
▁Planschbecken	-12.0197
▁Menü	-12.0197
▁blasen	-12.0197
▁Briefkasten	-12.0197
katze	-12.0197
▁Green	-12.0197
ulente	-12.0197
▁verlie	-12.0197
▁Liga	-12.0197
lligen	-12.0197
usschnitt	-12.0197
▁gedreht	-12.0198
▁Anor	-12.0198
▁weinrot	-12.0198
▁Ju	-12.0198
▁schweißen	-12.0199
▁angeln	-12.0199
▁Los	-12.0199
▁Lederkleidung	-12.0199
▁Pant	-12.0199
spurige	-12.0199
▁Topfpflanze	-12.02
▁Zauberer	-12.02
▁Straßenstand	-12.02
▁Designer	-12.02
▁coole	-12.02
Verkehrspolizist	-12.02
▁eingehüllt	-12.02
heruntergelassen	-12.0201
▁knurrt	-12.0202
▁Steinweg	-12.0202
▁Verkleidung	-12.0202
▁Schuluniform	-12.0202
ussel	-12.0202
▁massier	-12.0203
▁Kamele	-12.0203
▁Schön	-12.0205
▁Polizeiuniform	-12.0205
▁Back	-12.0205
▁Wanderin	-12.0206
wetter	-12.0206
▁Joe	-12.0206
ufer	-12.0207
gehalten	-12.0207
▁Life	-12.0208
▁Bru	-12.0208
▁entschlossen	-12.0209
Hochstart	-12.0209
▁Bahnschiene	-12.0209
▁buddel	-12.0209
▁überschlagen	-12.0209
▁Spielzeugzug	-12.0209
▁Eistüten	-12.0209
▁Markisen	-12.0209
▁Strümpfen	-12.0209
▁Unterlagen	-12.0209
▁Latten	-12.021
▁Biene	-12.021
▁abgestimmten	-12.0211
▁gest	-12.0211
▁zielen	-12.0211
▁operieren	-12.0211
drehen	-12.0211
▁bevorstehende	-12.0212
▁Spring	-12.0212
▁kostenlos	-12.0213
▁Polizeifahrzeug	-12.0213
▁Treppenhauses	-12.0213
▁Schlepper	-12.0214
▁Glocke	-12.0214
sachen	-12.0215
▁rohe	-12.0216
uskeln	-12.0217
▁tex	-12.0218
▁Fußbälle	-12.0219
▁angehoben	-12.0219
▁Tour	-12.022
▁Kochmütze	-12.0222
inkt	-12.0222
▁herunterge	-12.0223
kler	-12.0223
▁Kochkleidung	-12.0225
▁Toten	-12.0226
▁umgibt	-12.0226
▁Schwimmring	-12.0227
▁unglückliche	-12.0228
▁Strei	-12.0229
▁Cre	-12.0229
rüstung	-12.0231
▁Sanität	-12.0231
▁größerer	-12.0231
isches	-12.0232
▁Spanien	-12.0233
▁Baumgruppe	-12.0233
▁Straßenmusikant	-12.0233
rust	-12.0233
▁Handbewegungen	-12.0233
▁Cowboykleidung	-12.0233
▁Angriffs	-12.0234
▁Springen	-12.0236
▁Restauranttisch	-12.0236
▁Obama	-12.0236
▁Objektiv	-12.0236
▁Motiv	-12.0236
▁Wash	-12.0236
▁lief	-12.0236
▁Schiffes	-12.0237
▁School	-12.0237
▁Schwamm	-12.0237
duell	-12.0238
▁Wassernähe	-12.0238
▁Nin	-12.024
▁zusammenzu	-12.024
zeichnungen	-12.0242
▁Balletttänzer	-12.0244
▁farben	-12.0245
▁lös	-12.0246
gart	-12.0247
▁Hunderennen	-12.0247
Mar	-12.0248
▁Weide	-12.0248
▁wälzt	-12.0248
ären	-12.0251
▁schü	-12.0252
▁alt	-12.0252
gesprüht	-12.0257
▁Star	-12.0258
▁Bohrer	-12.0262
zuhören	-12.0262
öden	-12.0263
▁Spare	-12.0263
▁Handgerät	-12.0264
üll	-12.0266
▁herunterzu	-12.0267
Basketballspiele	-12.0267
gger	-12.0267
▁Baugerät	-12.0269
pfeln	-12.0271
▁Schokoladen	-12.0271
▁Cowboyhüten	-12.0271
▁rötlichen	-12.0271
▁Baumaschinen	-12.0272
wolken	-12.0272
▁Suppen	-12.0272
▁Karnevals	-12.0273
▁Designs	-12.0273
▁Empfangs	-12.0273
▁Blüten	-12.0275
▁holz	-12.0277
▁hüte	-12.0277
tcher	-12.0278
▁Gewehre	-12.0279
itat	-12.0281
▁Parkweg	-12.0282
▁Athleten	-12.0285
▁Ladengeschäft	-12.0285
▁Teddybären	-12.0286
▁angucken	-12.0286
▁Pu	-12.0286
▁Haustier	-12.0287
▁Ständen	-12.0293
▁stürm	-12.0294
hause	-12.0294
wall	-12.0298
▁denken	-12.0298
dwirtschaftliche	-12.0302
schmiert	-12.0303
▁per	-12.0304
gesagt	-12.0305
schicht	-12.0308
bow	-12.031
▁spülen	-12.031
Dance	-12.0311
hren	-12.0312
ppen	-12.0312
▁Gartenarbeit	-12.0312
▁Autofahrer	-12.0312
▁Lebens	-12.0312
▁Fallschirme	-12.0313
uppe	-12.0313
fahrzeuge	-12.0314
▁spanisch	-12.0318
▁Metallrohr	-12.0321
fliegen	-12.0322
▁Par	-12.0323
Probe	-12.0323
Pho	-12.0324
halter	-12.0325
getragen	-12.0325
▁Wache	-12.0329
welt	-12.0332
▁danebensteh	-12.0333
▁Arbeitstag	-12.0334
▁Wunderkerzen	-12.0335
▁Muscheln	-12.0335
Grand	-12.0335
▁Wasserpistolen	-12.0335
▁Meeresfrüchten	-12.0335
▁Bändern	-12.0336
unte	-12.0337
Juweliergeschäft	-12.0341
hauses	-12.0341
ruppig	-12.035
ial	-12.0351
eife	-12.0356
▁Anku	-12.0363
duckt	-12.0363
▁wasser	-12.0363
▁gestellt	-12.0364
wickelt	-12.0366
▁Bauern	-12.0366
▁Alp	-12.0366
ungsvoll	-12.0366
▁Del	-12.0368
▁Engels	-12.0376
bläser	-12.0387
▁Rollschuhen	-12.0387
▁Fußballtrikots	-12.0392
▁Eiswagens	-12.0392
▁Broschüren	-12.04
▁Gesichtsmasken	-12.04
IS	-12.0401
FC	-12.0402
▁selbstgeba	-12.0409
▁Latein	-12.0415
studio	-12.0422
rill	-12.0424
▁ausruhen	-12.0425
undschaft	-12.0426
hlt	-12.0429
▁Drinks	-12.0432
▁Schlauchbooten	-12.0436
zubereit	-12.0438
▁blo	-12.0439
▁kegel	-12.044
▁Männerteam	-12.0441
reiten	-12.0444
▁durchzu	-12.0445
bauen	-12.0446
blättern	-12.0447
▁übereinander	-12.0448
slos	-12.0451
ynchronschwimmer	-12.0451
ehn	-12.0452
▁neun	-12.0454
eift	-12.0456
▁bed	-12.0463
Ski	-12.0463
▁organisier	-12.0464
verkaufsstand	-12.0465
RO	-12.047
▁einhändige	-12.0472
▁Scho	-12.0474
raffe	-12.0476
ranst	-12.0479
uge	-12.0479
▁selbe	-12.0484
▁Rinde	-12.0486
ox	-12.0499
▁Tra	-12.0503
▁Boa	-12.0505
▁vermisch	-12.0505
eys	-12.0507
flank	-12.0509
▁Lif	-12.0514
▁winkend	-12.0514
▁Angels	-12.0517
inierte	-12.0521
dige	-12.0528
▁kreisch	-12.053
▁Perücken	-12.0532
ugs	-12.0543
ballen	-12.0551
enschen	-12.0567
rennens	-12.0571
▁Gewürze	-12.0578
▁Jahren	-12.0579
erc	-12.0583
▁tiefblaue	-12.0584
gesehen	-12.0596
▁Trompeter	-12.0596
▁Surfbretter	-12.0597
▁Winterjacken	-12.0597
▁Kabinen	-12.0597
schatte	-12.06
kippt	-12.0601
▁Doppeldeckerbus	-12.0604
▁Clubs	-12.0616
▁wohl	-12.0616
▁Posen	-12.0624
fahrzeugs	-12.0626
▁Zahlen	-12.0628
▁Säuglings	-12.0635
▁Beamten	-12.0656
Pad	-12.066
farbig	-12.0661
gefallene	-12.0662
▁säubern	-12.0664
▁Hintern	-12.0665
geräten	-12.0667
▁Tattoos	-12.0676
▁Spiegelung	-12.0687
freie	-12.0704
lipper	-12.0709
Raft	-12.071
▁Bauchtänzer	-12.0712
▁Küchenarbeits	-12.0723
ose	-12.0724
igt	-12.0725
▁voneinander	-12.0726
lucht	-12.0728
zen	-12.0731
▁Kneipen	-12.0732
▁Wasserspritze	-12.0769
gedrückt	-12.0785
are	-12.0806
rheb	-12.0807
onder	-12.081
▁Kassen	-12.0817
▁Kil	-12.0821
ählen	-12.0831
▁Rennautos	-12.0842
spiegelt	-12.0856
▁Fallschirmen	-12.0872
No	-12.0881
wühlt	-12.0886
stiegs	-12.09
ehrt	-12.0913
▁dahin	-12.0924
ube	-12.0938
gesägt	-12.0958
helf	-12.0967
▁Metallto	-12.0974
nern	-12.1011
▁betrunken	-12.1014
ven	-12.1021
angehörige	-12.1041
▁beginnende	-12.1047
▁Kochen	-12.1047
▁wunderschön	-12.1048
same	-12.105
▁Wasserstrahl	-12.1051
Baseballteam	-12.1071
luft	-12.1073
▁Gerüsten	-12.1101
▁schreibend	-12.1108
▁Nu	-12.1112
▁sonn	-12.1115
abhängen	-12.1116
fußball	-12.1146
getre	-12.1149
▁traditionell	-12.1154
▁erzeug	-12.1161
▁San	-12.1164
nge	-12.1236
tra	-12.1261
▁erhöht	-12.1265
Do	-12.1265
▁Jo	-12.1268
▁Chi	-12.1276
▁Zweige	-12.1313
marke	-12.1316
eld	-12.1363
▁spät	-12.1366
▁Dis	-12.137
▁Medaille	-12.1396
▁Wie	-12.1404
▁Si	-12.1405
▁Zweigen	-12.1414
ula	-12.1426
▁Fahrradhelme	-12.1428
▁Batter	-12.143
▁Deutsch	-12.146
geschnitten	-12.1481
▁Ki	-12.1498
klappe	-12.1509
▁neugierige	-12.1519
fliegt	-12.1519
▁gebl	-12.1526
ckchen	-12.1539
▁gefaltet	-12.1573
▁ha	-12.1597
▁Schluc	-12.1629
▁üppige	-12.1631
agg	-12.1651
gehend	-12.1658
▁senkrechte	-12.1678
ford	-12.1681
färbt	-12.1698
▁Vo	-12.1702
IG	-12.1704
ucher	-12.1706
▁besondere	-12.1723
ody	-12.1731
oberfläche	-12.1742
Free	-12.1746
▁Bekannte	-12.1759
▁Hack	-12.1784
▁gebogene	-12.1798
▁Pep	-12.1827
▁indisch	-12.1845
schaffen	-12.1863
ktion	-12.1872
eiden	-12.1872
EL	-12.1921
gekle	-12.196
▁lebhafte	-12.1972
▁Zent	-12.1985
▁Metallarbeite	-12.2049
spitzen	-12.2063
ollie	-12.2107
schiff	-12.2132
▁gese	-12.214
▁Cro	-12.2144
▁besser	-12.2154
▁übersät	-12.2158
schling	-12.219
▁begeisterte	-12.2195
▁kühl	-12.2229
▁abgele	-12.2252
vo	-12.2259
dus	-12.2261
etzen	-12.2268
▁Sitze	-12.2303
anische	-12.2307
▁Kla	-12.2317
stillt	-12.2328
esso	-12.2357
▁Stände	-12.2363
kunst	-12.2368
dler	-12.2378
Trockner	-12.2413
▁Alle	-12.2417
▁Kle	-12.2443
cus	-12.2443
ust	-12.2463
▁grünblau	-12.2474
▁falsch	-12.2478
link	-12.2495
▁Gel	-12.2528
▁singend	-12.2656
▁Kanals	-12.2658
▁Wi	-12.2659
▁Bag	-12.2665
chu	-12.2679
▁gehol	-12.2686
▁unge	-12.2722
▁Pakete	-12.2729
sstation	-12.2748
▁identisch	-12.2759
▁angeleinte	-12.2771
▁Lebensmittellad	-12.2775
beamte	-12.2778
probe	-12.2782
▁Frühstücks	-12.2784
▁Mac	-12.2789
▁Blasinstrument	-12.2793
▁prächtig	-12.2809
▁Pull	-12.2811
gefarbenen	-12.2827
uh	-12.2858
isenbahnschienen	-12.2874
hängt	-12.2882
▁vornehm	-12.2883
▁gegrillte	-12.2885
▁aufgesetzt	-12.2895
Eisenbahnschiene	-12.2904
suche	-12.2909
▁Gri	-12.2911
rennbahn	-12.2928
▁merkwürdige	-12.2973
▁Schmetterlinge	-12.2978
▁gebogen	-12.2983
▁schütte	-12.301
gge	-12.3047
GO	-12.3083
▁entla	-12.3085
ipper	-12.3102
onische	-12.3125
▁wartend	-12.316
▁vorübergeh	-12.3205
▁gefaltete	-12.3237
berführung	-12.3247
aiteninstrumente	-12.3266
kletter	-12.3295
▁Metallk	-12.3366
▁Fischernetze	-12.3379
▁Heck	-12.339
reitet	-12.3397
▁Touristin	-12.3432
tollen	-12.3474
▁formell	-12.3475
astet	-12.3494
stützen	-12.3519
ändern	-12.3531
mark	-12.3539
scher	-12.354
frischen	-12.3576
kehrt	-12.36
reif	-12.3625
▁Mode	-12.3631
▁Boogie	-12.367
▁schön	-12.3687
inirock	-12.3701
gezeichnet	-12.3742
ußballspiel	-12.376
ackt	-12.3776
▁bet	-12.3803
gert	-12.3807
pflege	-12.3812
▁Aufstell	-12.3865
schienen	-12.3872
strahlen	-12.3886
J	-12.393
▁betrunkene	-12.3935
▁tröste	-12.3947
zi	-12.3948
front	-12.3962
▁Halt	-12.4027
gehende	-12.4027
schaft	-12.4077
▁neongelb	-12.4118
▁Keks	-12.4119
▁Rennhund	-12.412
ayo	-12.4128
ossen	-12.4129
▁Blas	-12.4136
▁weiblich	-12.4213
▁Klub	-12.4229
▁unterstütz	-12.4237
▁gesicherte	-12.425
lle	-12.4327
annt	-12.4328
▁Kleidungsstück	-12.434
streit	-12.4346
tänzerin	-12.4356
regenbogenfarbig	-12.4371
kle	-12.4388
gebaut	-12.4432
abine	-12.4439
▁stille	-12.4464
bärtiger	-12.447
ellen	-12.4489
elte	-12.45
busses	-12.4508
gg	-12.4542
ival	-12.4608
sperrt	-12.4617
gesetzten	-12.4629
uckelt	-12.463
▁verw	-12.4656
N	-12.4656
▁Sh	-12.4668
▁Fal	-12.4669
liebte	-12.467
kten	-12.4698
▁ras	-12.4699
▁Kund	-12.4704
pst	-12.4715
▁El	-12.4717
ames	-12.4728
afting	-12.4764
▁Rin	-12.4779
itt	-12.4785
scheine	-12.4799
ämme	-12.4805
▁Blechbl	-12.4834
zieh	-12.4836
immer	-12.4865
türmt	-12.4865
streckt	-12.4865
wickel	-12.4868
raft	-12.4874
ive	-12.4878
hören	-12.4887
absperrung	-12.4891
rät	-12.4895
reinig	-12.4895
vertrete	-12.49
▁Lila	-12.4911
zwei	-12.4917
spannt	-12.4921
off	-12.4923
sicher	-12.4925
rohre	-12.494
▁hei	-12.4945
zufangen	-12.4947
fach	-12.4954
▁bräunlich	-12.4957
gezogen	-12.4975
pflanz	-12.4978
viertel	-12.498
▁Bik	-12.4982
▁brau	-12.4995
hre	-12.5
▁bewa	-12.5005
▁Blüte	-12.501
haben	-12.5011
ips	-12.5015
wolke	-12.5016
▁Schwei	-12.5016
▁Schokolade	-12.5016
▁rötliche	-12.5016
▁End	-12.5017
pfel	-12.5018
▁Cowboyhüte	-12.5018
owa	-12.5019
▁Suppe	-12.5023
▁Limonade	-12.5023
▁Kühe	-12.5024
▁Ohrhörer	-12.5024
▁Schärpe	-12.5024
▁Baumaschine	-12.5025
wärme	-12.5027
▁Pfote	-12.5027
▁Zitrone	-12.5028
▁wetteifer	-12.5029
▁Wei	-12.503
bäume	-12.503
▁Masse	-12.503
stöcke	-12.5031
steine	-12.5032
▁Einkaufstüte	-12.5034
▁Wolke	-12.5034
▁Tomate	-12.5035
violett	-12.5035
▁Inlineskate	-12.5035
▁Knöpfe	-12.5036
rück	-12.5037
▁Röcke	-12.5038
▁Perle	-12.5038
▁Räder	-12.5038
▁Socke	-12.5039
▁Drache	-12.504
zenerie	-12.5043
▁Lö	-12.5045
▁Hüt	-12.5046
ittert	-12.5047
▁rost	-12.5047
äre	-12.5049
ischt	-12.5052
füll	-12.5055
gebracht	-12.5056
pflanze	-12.5057
schä	-12.5058
felt	-12.5059
▁gehe	-12.506
▁Balletttänzerin	-12.5061
▁blicke	-12.5063
blo	-12.5063
gleitet	-12.5064
▁Lehr	-12.5066
feuer	-12.5066
▁kni	-12.5066
war	-12.5068
metall	-12.5071
▁Schwimmflügel	-12.5072
Wash	-12.5072
Schwamm	-12.5072
Obama	-12.5072
Motiv	-12.5072
Objektiv	-12.5072
School	-12.5072
lief	-12.5073
Bull	-12.5074
prächtige	-12.5074
pink	-12.5076
hebt	-12.5076
▁Angriff	-12.5077
Sooners	-12.5077
Krieg	-12.5078
▁tätowier	-12.5078
Basketballkorb	-12.5079
Kämpfer	-12.508
Gu	-12.508
▁beeindrucken	-12.508
sorg	-12.508
Aufkleber	-12.508
passt	-12.5081
Gi	-12.5081
Schrift	-12.5081
Spielzeugauto	-12.5081
▁Kimono	-12.5081
Rasenmäher	-12.5081
probieren	-12.5082
tieren	-12.5082
▁pro	-12.5082
Geländefahrzeug	-12.5083
Stil	-12.5083
weite	-12.5083
Staubsauger	-12.5083
Make	-12.5083
gepflasterte	-12.5083
geworfen	-12.5083
binden	-12.5083
▁Bahngleis	-12.5084
Feuerwehrauto	-12.5085
Frisur	-12.5085
Präsentation	-12.5085
fasst	-12.5085
Video	-12.5085
Stunt	-12.5085
Banner	-12.5085
Sandwich	-12.5085
Hotel	-12.5085
Linie	-12.5086
Kiste	-12.5086
Show	-12.5086
Lager	-12.5086
Figur	-12.5086
beißt	-12.5086
liegt	-12.5086
Röcken	-12.5087
silbernen	-12.5087
Post	-12.5087
Kampf	-12.5087
Studenten	-12.5087
paddelt	-12.5087
bewegt	-12.5087
Traktor	-12.5087
gießt	-12.5087
Clown	-12.5087
Lastwagen	-12.5087
statt	-12.5087
Steinen	-12.5088
schießen	-12.5088
Strecke	-12.5088
Torhüter	-12.5088
abend	-12.5088
Badehose	-12.5088
Einkaufswagen	-12.5088
Kappe	-12.5088
Fahrzeug	-12.5088
starrt	-12.5088
Badeanzug	-12.5088
Sweatshirt	-12.5088
Cowboy	-12.5088
Laptop	-12.5088
Rampe	-12.5088
blonde	-12.5088
Stand	-12.5088
Trick	-12.5088
Pool	-12.5088
Nummer	-12.5088
Eimer	-12.5089
Gesicht	-12.5089
Zwei	-12.5089
Loch	-12.5089
Kamera	-12.5089
Pullover	-12.5089
schwimmt	-12.5089
Rock	-12.5089
Kopf	-12.5089
▁sehe	-12.5089
Wasser	-12.5089
Hintergrund	-12.5089
Familie	-12.5089
Bühne	-12.5089
pinkfarbene	-12.5089
Pferd	-12.5089
Art	-12.509
Buch	-12.509
Rot	-12.509
Top	-12.509
gekleidet	-12.509
üch	-12.509
leeren	-12.5091
▁Pflanz	-12.5091
Bus	-12.5091
▁brennen	-12.5091
Footballspieler	-12.5092
dreh	-12.5092
gepackte	-12.5093
Bar	-12.5094
▁Well	-12.5095
ulkan	-12.5096
▁Para	-12.5096
rasiert	-12.5097
dicht	-12.5097
Musiker	-12.5099
▁steh	-12.5099
Tor	-12.5099
Baseballspieler	-12.5099
▁Kur	-12.5099
▁Kick	-12.5099
schuh	-12.51
▁Schlaf	-12.51
bällen	-12.5101
▁wäh	-12.5102
▁lach	-12.5103
Spielerin	-12.5105
bull	-12.5106
▁Turnübung	-12.5106
▁elegant	-12.5107
prall	-12.5108
▁versorg	-12.5109
singen	-12.511
organis	-12.511
▁kosten	-12.5111
▁operier	-12.5113
lichkeiten	-12.5113
▁Prä	-12.5113
▁musizier	-12.5114
▁Grab	-12.5115
▁Chirurg	-12.5115
▁erledig	-12.5117
iegelt	-12.5118
▁Nachricht	-12.5119
▁Kolleg	-12.512
▁Süßigkeit	-12.512
▁Elefant	-12.5121
zukommen	-12.5121
▁Labrado	-12.5122
▁reagier	-12.5122
geknöpft	-12.5123
▁Pro	-12.5123
▁Einkäufe	-12.5125
eit	-12.5125
machen	-12.5126
ippe	-12.5127
▁Männe	-12.5127
▁Roh	-12.5129
▁Schleppe	-12.5132
▁burgunder	-12.5132
▁Holzstück	-12.5133
riftet	-12.5134
▁Pedal	-12.5135
fangen	-12.5135
▁ziel	-12.5136
▁Gehe	-12.5136
▁Fah	-12.5136
mong	-12.5137
wirtschaft	-12.5137
mobil	-12.5138
▁Spül	-12.514
▁Sec	-12.514
▁Kontroll	-12.5142
▁Hilf	-12.5143
orb	-12.5143
hüllte	-12.5144
▁Eck	-12.5144
prüf	-12.5144
▁Holzsta	-12.5144
gestaltet	-12.5145
creme	-12.5145
quert	-12.5146
ürfel	-12.5147
pistole	-12.5149
▁fehl	-12.515
▁Bandmitglied	-12.515
▁Wasserspreng	-12.5151
bemalung	-12.5152
tücher	-12.5152
Monitor	-12.5152
stöß	-12.5152
▁Mehr	-12.5152
▁beförder	-12.5153
streu	-12.5154
gespann	-12.5155
▁Maschendraht	-12.5155
violetten	-12.5155
agiert	-12.5157
reizt	-12.5157
▁Brü	-12.5158
▁Fed	-12.5158
ammer	-12.5161
▁Model	-12.5161
▁Absperr	-12.5162
▁Wohnhaus	-12.5162
▁beteilig	-12.5163
ribüne	-12.5163
▁leh	-12.5163
öchern	-12.5164
staunen	-12.5164
ffel	-12.5165
attraktion	-12.5165
uchte	-12.5165
▁Defens	-12.5166
▁Jugend	-12.5166
ücke	-12.5166
▁befrei	-12.5166
▁Werf	-12.5167
scar	-12.5167
▁Medizin	-12.5167
ballons	-12.5167
tänzer	-12.5168
schlüssel	-12.5168
rädrige	-12.5168
▁Schneider	-12.5168
eva	-12.5168
dress	-12.5169
hafen	-12.517
uschel	-12.517
▁Seg	-12.517
möbeln	-12.517
worfen	-12.517
Mou	-12.517
ügel	-12.517
▁Pfa	-12.517
chürze	-12.517
▁Führ	-12.517
strauß	-12.517
plattform	-12.5171
faltet	-12.5171
holfen	-12.5171
▁erfor	-12.5171
▁Tunik	-12.5171
gänger	-12.5171
konzert	-12.5171
kontroll	-12.5171
üchern	-12.5171
pfanne	-12.5171
wundert	-12.5171
stadion	-12.5171
monitor	-12.5171
etzten	-12.5171
laterne	-12.5172
ätzchen	-12.5172
▁irgendw	-12.5172
ristall	-12.5172
▁Akrobati	-12.5172
mäher	-12.5172
abteilung	-12.5172
▁Bürgerstei	-12.5172
ernrohr	-12.5172
brochen	-12.5172
formation	-12.5172
ction	-12.5172
lfass	-12.5172
rogramm	-12.5172
awaii	-12.5172
arena	-12.5172
Stop	-12.5172
aterial	-12.5173
▁Würst	-12.5173
▁Karo	-12.5173
eparatur	-12.5173
willig	-12.5173
itarrist	-12.5173
triebene	-12.5173
winkel	-12.5173
indernis	-12.5173
▁Gäs	-12.5173
arbietung	-12.5173
ervieren	-12.5173
insel	-12.5173
ssiv	-12.5173
triebs	-12.5173
▁Brief	-12.5173
eschäftigt	-12.5173
nägel	-12.5173
äuser	-12.5173
▁Kaugummi	-12.5173
börse	-12.5173
▁Flanell	-12.5173
▁wahr	-12.5173
kittel	-12.5173
Dekoration	-12.5173
angebot	-12.5173
▁Elektro	-12.5173
egnet	-12.5173
hölzer	-12.5173
heimnis	-12.5173
tattoo	-12.5173
▁Hartholz	-12.5173
▁Metzger	-12.5173
▁Sprüh	-12.5173
▁berüh	-12.5173
▁Spac	-12.5173
chore	-12.5173
Terri	-12.5174
beug	-12.5174
▁Press	-12.5174
chleuder	-12.5174
itrine	-12.5174
reiht	-12.5174
karton	-12.5174
assade	-12.5174
▁Grouch	-12.5174
▁Sumpf	-12.5174
eranda	-12.5174
frisur	-12.5174
kamerad	-12.5174
prenger	-12.5174
▁Benzin	-12.5174
▁Irokesen	-12.5174
▁Bastel	-12.5174
ACE	-12.5174
anorama	-12.5174
katessen	-12.5174
wässerungs	-12.5174
änzen	-12.5174
▁Kartengeber	-12.5174
▁Lebkuchenh	-12.5174
▁Ocean	-12.5174
▁Offizielle	-12.5174
▁Pfeffer	-12.5174
▁Scooby	-12.5174
▁Zigeuner	-12.5174
▁ermöglich	-12.5174
▁multi	-12.5174
Plüschtierpreise	-12.5174
Sehenswürdigkeit	-12.5174
antworte	-12.5174
exam	-12.5174
imbiss	-12.5174
körb	-12.5174
opilot	-12.5174
pfiff	-12.5174
regung	-12.5174
uperheldenkostüm	-12.5174
vieh	-12.5174
▁Alphabet	-12.5174
▁Antwort	-12.5174
▁Auswirkung	-12.5174
▁Blümchen	-12.5174
▁Böschung	-12.5174
▁Challenge	-12.5174
▁Converse	-12.5174
▁Empanadas	-12.5174
▁Erfrischung	-12.5174
▁Gurke	-12.5174
▁Güter	-12.5174
▁Hufeisen	-12.5174
▁Kebabs	-12.5174
▁Konditor	-12.5174
▁Kosmetik	-12.5174
▁Liveauftritt	-12.5174
▁Osterei	-12.5174
▁Presslufthämmer	-12.5174
▁Sauerstoff	-12.5174
▁Schließfächer	-12.5174
▁Selbst	-12.5174
▁Spezial	-12.5174
▁Sweat	-12.5174
▁Umkleide	-12.5174
▁Verzierung	-12.5174
▁Wissenschafts	-12.5174
▁Zivil	-12.5174
▁Zuggleise	-12.5174
▁bepackt	-12.5174
▁chaotische	-12.5174
▁dokumentier	-12.5174
▁exzentrisch	-12.5174
▁fühle	-12.5174
▁glü	-12.5174
▁kultivier	-12.5174
▁saftig	-12.5174
▁salutier	-12.5174
▁schlürf	-12.5174
▁sprudel	-12.5174
▁sprühen	-12.5174
▁waagerecht	-12.5174
▁zitronen	-12.5174
▁überrascht	-12.5174
Birthday	-12.5174
Energi	-12.5174
Equipment	-12.5174
Gießkanne	-12.5174
Interview	-12.5174
Künste	-12.5174
Mehrfamilienhaus	-12.5174
OME	-12.5174
Propeller	-12.5174
Shrit	-12.5174
Spielzeuggitarre	-12.5174
Stabhochspringer	-12.5174
Stripe	-12.5174
athlet	-12.5174
aufensterbummel	-12.5174
beauftragte	-12.5174
blüte	-12.5174
break	-12.5174
darsteller	-12.5174
dimensionierte	-12.5174
esprech	-12.5174
fabrik	-12.5174
ffnete	-12.5174
finster	-12.5174
fässer	-12.5174
gebirge	-12.5174
gekrönt	-12.5174
glu	-12.5174
gyptische	-12.5174
hrfurcht	-12.5174
kolonne	-12.5174
kombi	-12.5174
kronen	-12.5174
köche	-12.5174
kühler	-12.5174
kündig	-12.5174
lympioniken	-12.5174
maskottchen	-12.5174
mikroskop	-12.5174
milienmitglieder	-12.5174
munikationsgerät	-12.5174
nbürste	-12.5174
nkränze	-12.5174
nttäusch	-12.5174
nöchelt	-12.5174
ollschuhlaufende	-12.5174
ollywood	-12.5174
ologi	-12.5174
ooping	-12.5174
pavill	-12.5174
picknick	-12.5174
porträt	-12.5174
präsentation	-12.5174
sbehörde	-12.5174
sbuffet	-12.5174
schbombe	-12.5174
schleier	-12.5174
spaß	-12.5174
stylisti	-12.5174
tablett	-12.5174
teilnehmer	-12.5174
teleskop	-12.5174
trampelt	-12.5174
transporter	-12.5174
uerflöte	-12.5174
ungsbetrieb	-12.5174
unterlage	-12.5174
versammlung	-12.5174
wältig	-12.5174
wärmt	-12.5174
zäunen	-12.5174
▁Abdeckplane	-12.5174
▁Abwehrspieler	-12.5174
▁Akrobaten	-12.5174
▁Amputierte	-12.5174
▁Angehörige	-12.5174
▁Angst	-12.5174
▁Antiquitäten	-12.5174
▁Armbanduhr	-12.5174
▁Asphaltbelag	-12.5174
▁Atlanta	-12.5174
▁Auditorium	-12.5174
▁Baltimore	-12.5174
▁Barhocker	-12.5174
▁Baumgrenze	-12.5174
▁Belag	-12.5174
▁Bistro	-12.5174
▁Bodybuilder	-12.5174
▁Boutique	-12.5174
▁Brezeln	-12.5174
▁Brokkoli	-12.5174
▁Budweiser	-12.5174
▁Burrito	-12.5174
▁Bögen	-12.5174
▁Calvin	-12.5174
▁Chemikalie	-12.5174
▁Chevrolet	-12.5174
▁Cocktails	-12.5174
▁Coffee	-12.5174
▁Company	-12.5174
▁Dackel	-12.5174
▁Davidstern	-12.5174
▁Delphin	-12.5174
▁Detail	-12.5174
▁Didgeridoo	-12.5174
▁Donnerstag	-12.5174
▁Doppel	-12.5174
▁Dudelsäcke	-12.5174
▁Durag	-12.5174
▁Edelstahl	-12.5174
▁Ehepaar	-12.5174
▁Eidechse	-12.5174
▁Eiffelturm	-12.5174
▁Einkaufsbummel	-12.5174
▁Eiskunstläufer	-12.5174
▁Entertainer	-12.5174
▁Entscheidung	-12.5174
▁Eröffnung	-12.5174
▁Espresso	-12.5174
▁Express	-12.5174
▁Factory	-12.5174
▁Fairway	-12.5174
▁Fantas	-12.5174
▁Farbwalze	-12.5174
▁Fernsehkamera	-12.5174
▁Feuchtgebiet	-12.5174
▁Feuerhydranten	-12.5174
▁Flannel	-12.5174
▁Fleece	-12.5174
▁Fliegenfischen	-12.5174
▁Folklore	-12.5174
▁Formalitäten	-12.5174
▁Forschungs	-12.5174
▁Fotovorlage	-12.5174
▁Foyer	-12.5174
▁Francisco	-12.5174
▁Frisör	-12.5174
▁Fäden	-12.5174
▁Fähigkeiten	-12.5174
▁Ganzkörper	-12.5174
▁Gasgrill	-12.5174
▁Gebetsteppich	-12.5174
▁Gebirgs	-12.5174
▁Gebrauch	-12.5174
▁Gebüsch	-12.5174
▁Gefälle	-12.5174
▁Geistliche	-12.5174
▁Gestalt	-12.5174
▁Gewebe	-12.5174
▁Gewichthebe	-12.5174
▁Glühbirne	-12.5174
▁Grafik	-12.5174
▁Großeltern	-12.5174
▁Großvater	-12.5174
▁Handmixer	-12.5174
▁Hantel	-12.5174
▁Hauseingang	-12.5174
▁Heineken	-12.5174
▁Herbstlaub	-12.5174
▁Hijab	-12.5174
▁Hipster	-12.5174
▁Holzstäbe	-12.5174
▁Hopper	-12.5174
▁Hälfte	-12.5174
▁Hündin	-12.5174
▁Interesse	-12.5174
▁Italien	-12.5174
▁Jäger	-12.5174
▁Jüngere	-12.5174
▁Kakteen	-12.5174
▁Kiesstrand	-12.5174
▁Kirschblüten	-12.5174
▁Kolonial	-12.5174
▁Krankenpfleger	-12.5174
▁Kräuter	-12.5174
▁Kunststofftasse	-12.5174
▁Langlauf	-12.5174
▁Laufstall	-12.5174
▁Lederschuhe	-12.5174
▁Lehnstuhl	-12.5174
▁Lineal	-12.5174
▁Lutscher	-12.5174
▁Martini	-12.5174
▁Meißel	-12.5174
▁Metallbauwerk	-12.5174
▁Mobil	-12.5174
▁Mohikaner	-12.5174
▁Mulch	-12.5174
▁Muslim	-12.5174
▁NER	-12.5174
▁Needle	-12.5174
▁Neujahrs	-12.5174
▁Nonnentracht	-12.5174
▁Nägel	-12.5174
▁Ordner	-12.5174
▁Palmwedeln	-12.5174
▁Papagei	-12.5174
▁Pappschachtel	-12.5174
▁Pavillon	-12.5174
▁Pferch	-12.5174
▁Pferdefuhrwerk	-12.5174
▁Pickel	-12.5174
▁Pokemon	-12.5174
▁Portrait	-12.5174
▁Putz	-12.5174
▁Rasiermesser	-12.5174
▁Regenguss	-12.5174
▁Regenschrim	-12.5174
▁Ribbon	-12.5174
▁Ringkämpfer	-12.5174
▁Risiko	-12.5174
▁SWAT	-12.5174
▁Schaffner	-12.5174
▁Scheune	-12.5174
▁Schnabel	-12.5174
▁Schneidbrett	-12.5174
▁Schnurrbärten	-12.5174
▁Schreien	-12.5174
▁Schränk	-12.5174
▁Schuhputzstand	-12.5174
▁Schweinefleisch	-12.5174
▁Schöpf	-12.5174
▁Scrabble	-12.5174
▁Seahawks	-12.5174
▁Seminar	-12.5174
▁Sessellift	-12.5174
▁Shampoo	-12.5174
▁Signal	-12.5174
▁Slalom	-12.5174
▁Slum	-12.5174
▁Souschef	-12.5174
▁Souvenir	-12.5174
▁Spaghetti	-12.5174
▁Sperrholz	-12.5174
▁Spielkonsole	-12.5174
▁Sportfans	-12.5174
▁Sprecher	-12.5174
▁Stadtplan	-12.5174
▁Story	-12.5174
▁Streikschildern	-12.5174
▁Stretching	-12.5174
▁Stromleitungen	-12.5174
▁Sträuchern	-12.5174
▁Styroporbecher	-12.5174
▁Terminal	-12.5174
▁Thai	-12.5174
▁Trampelpfad	-12.5174
▁Transformator	-12.5174
▁Tribal	-12.5174
▁Trinkgeld	-12.5174
▁Tätigkeiten	-12.5174
▁Tümpel	-12.5174
▁Umriss	-12.5174
▁Unternehmer	-12.5174
▁Untertasse	-12.5174
▁Urinal	-12.5174
▁Vegetation	-12.5174
▁Ventilator	-12.5174
▁Verdächtige	-12.5174
▁Vorräte	-12.5174
▁Vorspeise	-12.5174
▁Wahrzeichen	-12.5174
▁Winkel	-12.5174
▁Wischmob	-12.5174
▁Zange	-12.5174
▁Ziegelpflaster	-12.5174
▁Ziffer	-12.5174
▁Zuckerrohr	-12.5174
▁Zwiebel	-12.5174
▁abfallenden	-12.5174
▁abgestorbene	-12.5174
▁aktiv	-12.5174
▁alkoholische	-12.5174
▁altertümliche	-12.5174
▁angeseilt	-12.5174
▁anspruchsvolle	-12.5174
▁applaudieren	-12.5174
▁applaudiert	-12.5174
▁atemberaubend	-12.5174
▁attackiert	-12.5174
▁aufgespießte	-12.5174
▁aufreizende	-12.5174
▁aufzufallen	-12.5174
▁ausdruckslos	-12.5174
▁ausgetrocknete	-12.5174
▁auspackt	-12.5174
▁bauschige	-12.5174
▁beinhaltet	-12.5174
▁bekannte	-12.5174
▁benötigt	-12.5174
▁beseitigen	-12.5174
▁bezaubernde	-12.5174
▁brasilianische	-12.5174
▁chinesiche	-12.5174
▁dominiert	-12.5174
▁drapier	-12.5174
▁duneklhaarige	-12.5174
▁eingebuddelt	-12.5174
▁eingefroren	-12.5174
▁entsorgt	-12.5174
▁entsprechende	-12.5174
▁entwirren	-12.5174
▁erfolgreich	-12.5174
▁erklären	-12.5174
▁festzuhalten	-12.5174
▁filetier	-12.5174
▁flexible	-12.5174
▁flussabwärts	-12.5174
▁folkloristische	-12.5174
▁frequentierten	-12.5174
▁frisst	-12.5174
▁gedämpfte	-12.5174
▁geerntete	-12.5174
▁gekräuselte	-12.5174
▁gelangweilt	-12.5174
▁gelaunt	-12.5174
▁gemächlich	-12.5174
▁gesattelte	-12.5174
▁geschlungen	-12.5174
▁gewellt	-12.5174
▁gärtner	-12.5174
▁herrscht	-12.5174
▁holländische	-12.5174
▁hungrig	-12.5174
▁händchenhaltend	-12.5174
▁inspirier	-12.5174
▁installiert	-12.5174
▁internationale	-12.5174
▁interviewen	-12.5174
▁kennzeichnet	-12.5174
▁klatschnass	-12.5174
▁kreativ	-12.5174
▁könnte	-12.5174
▁leuchtorange	-12.5174
▁manövrieren	-12.5174
▁mürrisch	-12.5174
▁natürlich	-12.5174
▁nötig	-12.5174
▁olivgrüne	-12.5174
▁ostasiatische	-12.5174
▁perfekte	-12.5174
▁plaudern	-12.5174
▁primitiv	-12.5174
▁provisorisch	-12.5174
▁restliche	-12.5174
▁riesengroße	-12.5174
▁schattenhafte	-12.5174
▁schmoll	-12.5174
▁schmuddelig	-12.5174
▁schnüffeln	-12.5174
▁schubst	-12.5174
▁schwierige	-12.5174
▁schäumende	-12.5174
▁sendet	-12.5174
▁speisen	-12.5174
▁sternförmige	-12.5174
▁strahlt	-12.5174
▁technische	-12.5174
▁trabenden	-12.5174
▁tragbare	-12.5174
▁töpfert	-12.5174
▁verbirgt	-12.5174
▁verwitterten	-12.5174
▁verzehr	-12.5174
▁vietnamesische	-12.5174
▁wagemutige	-12.5174
▁wattierte	-12.5174
▁weitläufige	-12.5174
▁wünschen	-12.5174
▁zeitgenössische	-12.5174
▁zerklüftete	-12.5174
▁zerzaust	-12.5174
▁zöger	-12.5174
▁ärztliche	-12.5174
▁übrig	-12.5174
marsch	-12.5174
▁Diagramm	-12.5174
▁Reagenzgläser	-12.5174
▁Rockstar	-12.5174
▁Trio	-12.5174
▁verboten	-12.5174
Ausstattung	-12.5174
Campus	-12.5174
Manöver	-12.5174
gleichmäßig	-12.5174
leistung	-12.5174
ngstreckenläufer	-12.5174
prungschanze	-12.5174
verschmutz	-12.5174
▁Alaska	-12.5174
▁Aluminium	-12.5174
▁Angebot	-12.5174
▁Arbeitnehmer	-12.5174
▁Barrikade	-12.5174
▁Bohnen	-12.5174
▁Campen	-12.5174
▁Centr	-12.5174
▁Cheese	-12.5174
▁Clownsnase	-12.5174
▁Fußspuren	-12.5174
▁Garnelen	-12.5174
▁Holzsteg	-12.5174
▁Infield	-12.5174
▁Jagd	-12.5174
▁Jesus	-12.5174
▁Jury	-12.5174
▁Kandidat	-12.5174
▁Kapitäns	-12.5174
▁Kunstartikeln	-12.5174
▁Luxuswa	-12.5174
▁Pfauenkostüm	-12.5174
▁Pingpong	-12.5174
▁Prince	-12.5174
▁Rennsport	-12.5174
▁Schnellimbiss	-12.5174
▁Seifenwasser	-12.5174
▁Session	-12.5174
▁Tatort	-12.5174
▁Visier	-12.5174
▁Völker	-12.5174
▁Wikinger	-12.5174
▁Zugwaggons	-12.5174
▁Zwischen	-12.5174
▁adrett	-12.5174
▁beruhigen	-12.5174
▁dehnen	-12.5174
▁flipp	-12.5174
▁gebacken	-12.5174
▁gehäutete	-12.5174
▁gelockte	-12.5174
▁größten	-12.5174
▁identifizier	-12.5174
▁islamische	-12.5174
▁kamera	-12.5174
▁natur	-12.5174
▁origin	-12.5174
▁spezielle	-12.5174
▁trug	-12.5174
▁vertieft	-12.5174
▁wehende	-12.5174
▁äußer	-12.5174
AGA	-12.5174
Clog	-12.5174
Keep	-12.5174
dding	-12.5174
fächer	-12.5174
glaublich	-12.5174
krug	-12.5174
kutsche	-12.5174
nzeile	-12.5174
pedal	-12.5174
runzelnd	-12.5174
srael	-12.5174
tfahrgelegenheit	-12.5174
verdient	-12.5174
visiert	-12.5174
ydrauli	-12.5174
▁Araber	-12.5174
▁Brasilien	-12.5174
▁Eingeborene	-12.5174
▁Gebilde	-12.5174
▁Glück	-12.5174
▁Hitze	-12.5174
▁Hochzeitskuchen	-12.5174
▁Kanada	-12.5174
▁Lunch	-12.5174
▁Münz	-12.5174
▁Niko	-12.5174
▁Patriot	-12.5174
▁Sarong	-12.5174
▁Schaumstoff	-12.5174
▁Schuppen	-12.5174
▁Series	-12.5174
▁Sesamstraße	-12.5174
▁Stacheldraht	-12.5174
▁Styl	-12.5174
▁Sushi	-12.5174
▁Truth	-12.5174
▁Unternehmens	-12.5174
▁Wasserlache	-12.5174
▁behaarte	-12.5174
▁gepanzerte	-12.5174
▁magere	-12.5174
▁schief	-12.5174
▁schulterlange	-12.5174
▁schwebende	-12.5174
▁wasserdichte	-12.5174
▁überlegt	-12.5174
Ballsport	-12.5174
bögen	-12.5174
gewiesen	-12.5174
imper	-12.5174
piercings	-12.5174
üdostasi	-12.5174
▁Anruf	-12.5174
▁Center	-12.5174
▁Gleitschirm	-12.5174
▁Kinderfahrräder	-12.5174
▁Kornfeld	-12.5174
▁Liebe	-12.5174
▁Oliven	-12.5174
▁Tarnfarben	-12.5174
▁dargestellt	-12.5174
▁kuppel	-12.5174
▁positioniert	-12.5174
▁testet	-12.5174
▁toben	-12.5174
▁unterschreibt	-12.5174
▁verfallene	-12.5174
ckz	-12.5174
▁Kenia	-12.5174
▁Longboard	-12.5174
Hello	-12.5174
berry	-12.5174
geschichtete	-12.5174
hmallow	-12.5174
kupier	-12.5174
lympi	-12.5174
quamarin	-12.5174
rakete	-12.5174
▁Benzinkanister	-12.5174
▁Katzenbabies	-12.5174
▁Lampenmast	-12.5174
▁Mexiko	-12.5174
▁Multi	-12.5174
▁Parkuhr	-12.5174
▁Schlafsäcken	-12.5174
▁Siegerpo	-12.5174
▁abgeschirmte	-12.5174
▁alltägliche	-12.5174
▁beschließen	-12.5174
▁erzielt	-12.5174
▁olive	-12.5174
rommlern	-12.5174
säcken	-12.5174
▁Eisenstange	-12.5174
▁Justi	-12.5174
▁Panzer	-12.5174
▁blinzel	-12.5174
▁feuchte	-12.5174
▁sausen	-12.5174
▁vertrau	-12.5174
lied	-12.5174
▁Arbeitswesten	-12.5174
▁Chemie	-12.5174
▁Geschwister	-12.5174
▁Kettenkarussell	-12.5174
▁Lanzen	-12.5174
▁Planken	-12.5174
▁Schottenröcken	-12.5174
▁Stromkreise	-12.5174
▁besichtigen	-12.5174
▁pausier	-12.5174
▁radfahren	-12.5174
▁russische	-12.5174
▁Castro	-12.5174
▁Garden	-12.5174
▁Heckklappe	-12.5174
▁Hirsch	-12.5174
▁Schiebe	-12.5174
▁gesprenkelt	-12.5174
▁zerbricht	-12.5174
geschehen	-12.5174
poster	-12.5174
▁Hulk	-12.5174
▁Link	-12.5174
▁Tresen	-12.5174
▁schwule	-12.5174
tätig	-12.5174
▁Livekonzert	-12.5174
▁Regierung	-12.5174
▁Schraubenzieher	-12.5174
▁Themen	-12.5174
▁Zehenspitzen	-12.5174
▁predi	-12.5174
▁regen	-12.5174
▁wider	-12.5174
Drag	-12.5174
frohe	-12.5174
▁Grundstück	-12.5174
▁Harlem	-12.5174
▁besorgt	-12.5174
▁kicher	-12.5174
▁synchronisierte	-12.5174
▁Boogieboard	-12.5174
▁Curling	-12.5174
▁Ethn	-12.5174
▁betagte	-12.5174
▁erhellt	-12.5174
▁läng	-12.5174
Stones	-12.5174
atoren	-12.5174
hahn	-12.5174
röhr	-12.5174
shop	-12.5174
▁Astro	-12.5174
▁Dolch	-12.5174
▁Rollhockey	-12.5174
▁privat	-12.5174
green	-12.5174
▁Außenbord	-12.5174
▁Metro	-12.5174
▁Showgirl	-12.5174
▁Umzugswagen	-12.5174
▁Weitsprung	-12.5174
folie	-12.5174
free	-12.5174
zäunung	-12.5174
▁Gesteins	-12.5174
▁Hebebühne	-12.5174
▁rausgeworfen	-12.5174
▁Gewalt	-12.5174
▁Memor	-12.5174
▁Segelschiff	-12.5174
▁vorhandene	-12.5174
eremonie	-12.5174
ylon	-12.5174
▁Freundesgruppe	-12.5174
▁Propangas	-12.5174
▁Friedensschild	-12.5174
▁Krä	-12.5174
▁einzutau	-12.5174
▁himmelblaue	-12.5174
▁verpack	-12.5174
kanu	-12.5174
▁Alarm	-12.5174
▁Snap	-12.5174
▁Farbdose	-12.5174
▁Langläufer	-12.5174
▁Werkbank	-12.5174
down	-12.5174
▁Bootsfahrern	-12.5174
▁Presslufth	-12.5174
▁Seestern	-12.5174
welpe	-12.5174
▁Nagelpistole	-12.5174
rüpp	-12.5174
öckchen	-12.5174
▁Nadel	-12.5174
▁Tambour	-12.5174
▁koreanische	-12.5174
▁angeleuchtet	-12.5174
▁Pana	-12.5174
▁Segelflieger	-12.5174
▁kriege	-12.5174
betriebs	-12.5174
▁Wimpern	-12.5174
chmiedewerkzeuge	-12.5174
kanister	-12.5174
roffen	-12.5174
▁Pianist	-12.5174
▁Anstr	-12.5174
▁Hartholzboden	-12.5174
▁Metzgerei	-12.5174
talk	-12.5174
▁Leckerli	-12.5174
▁Dojo	-12.5174
▁Dünen	-12.5174
▁Herztattoo	-12.5174
▁Holzscheit	-12.5174
▁Notenblättern	-12.5174
▁Reaktion	-12.5174
▁Vitrine	-12.5174
▁braucht	-12.5174
▁erkunden	-12.5174
werkstatt	-12.5174
▁Sandsack	-12.5174
▁abgetrennt	-12.5174
▁Schriftzüge	-12.5174
kanne	-12.5174
üffel	-12.5174
▁Leckerei	-12.5174
▁Reifenspur	-12.5174
▁Strohhüte	-12.5174
▁Trinkbecher	-12.5174
▁erkennbar	-12.5174
▁knete	-12.5174
▁Kunststofffolie	-12.5174
▁Dollar	-12.5174
▁Freiluftbühne	-12.5174
▁Langhaar	-12.5174
▁Rauchwolke	-12.5174
▁Zuhörerschaft	-12.5174
▁bebaut	-12.5174
Nieder	-12.5174
abdrücken	-12.5174
▁Cargo	-12.5174
▁Elektrogerät	-12.5174
▁Rezept	-12.5174
▁Statur	-12.5174
Steak	-12.5174
▁Sonntag	-12.5174
▁Voll	-12.5174
▁ausgewählt	-12.5174
ajor	-12.5174
kunstwerk	-12.5174
▁Punkrock	-12.5174
MCA	-12.5174
▁Papierkr	-12.5174
▁Brüsten	-12.5174
aarschnitt	-12.5174
▁Monument	-12.5174
▁Driv	-12.5174
▁Möglichkeit	-12.5174
▁leder	-12.5174
▁vorzubereiten	-12.5174
▁zufrieden	-12.5174
röt	-12.5174
cake	-12.5174
handwerk	-12.5174
▁Insel	-12.5174
▁Vorstadthaus	-12.5174
▁Wirbel	-12.5174
▁Bericht	-12.5174
▁Düsenfl	-12.5174
▁Kleinbusses	-12.5174
▁Notenblatt	-12.5174
▁Stoppschild	-12.5174
kratz	-12.5174
▁Wettläufer	-12.5174
estyl	-12.5174
▁Lätzchen	-12.5174
▁steuern	-12.5174
EN	-12.5174
staat	-12.5174
▁Karotte	-12.5174
▁Nutz	-12.5174
▁Snoo	-12.5174
▁Bulldo	-12.5174
▁Reiseführer	-12.5174
▁verspielt	-12.5174
elsteine	-12.5174
▁Betonsperren	-12.5174
▁Bonbon	-12.5174
▁Brieftasche	-12.5174
▁Modelleisenbahn	-12.5174
▁Reinig	-12.5174
▁Schlafanzügen	-12.5174
▁gemessen	-12.5174
▁Kaugummiblase	-12.5174
aggon	-12.5174
▁Protestierende	-12.5174
▁anmutende	-12.5174
▁Förderband	-12.5174
▁Vorstadt	-12.5174
▁Bleistiftrock	-12.5174
CK	-12.5174
xotisch	-12.5174
▁Taubenschwarm	-12.5174
▁Zeltplane	-12.5174
▁Geheimnis	-12.5174
geblich	-12.5174
▁Diskus	-12.5174
▁Festsaal	-12.5174
▁geballte	-12.5174
iabol	-12.5174
▁Fluggäste	-12.5175
ufenthalt	-12.5175
▁Lecker	-12.5175
▁Wickelt	-12.5175
hildren	-12.5175
▁Unterholz	-12.5175
▁heftige	-12.5175
▁Elephant	-12.5175
▁Extrem	-12.5175
▁landschaftliche	-12.5175
Sky	-12.5175
▁Schriftzeichen	-12.5175
▁Zementlaster	-12.5175
▁angeordnet	-12.5175
▁tri	-12.5175
▁Gremi	-12.5175
▁Unterführung	-12.5175
chnitzerei	-12.5175
▁Jackson	-12.5175
▁WAR	-12.5175
ON	-12.5175
▁gefährlich	-12.5175
▁Gummihammer	-12.5175
▁Kehr	-12.5175
berhang	-12.5175
stattet	-12.5175
▁Kunststoffrohr	-12.5175
▁Zeug	-12.5175
Damenunterwäsche	-12.5175
▁Schulklasse	-12.5175
▁freiwillig	-12.5175
▁körperlich	-12.5175
▁Kompa	-12.5175
▁Rückbank	-12.5175
▁Risse	-12.5175
▁Verkehrskegel	-12.5175
▁Miene	-12.5175
▁versunken	-12.5175
▁verängstigt	-12.5175
▁Notenpult	-12.5175
▁Speerwurf	-12.5175
▁Tageslicht	-12.5175
iverse	-12.5175
löffel	-12.5175
▁Lava	-12.5175
▁Schrein	-12.5175
▁schrill	-12.5175
▁zurückgebundene	-12.5175
▁Kissenschlacht	-12.5175
▁köstliche	-12.5175
▁Fingerspitzen	-12.5175
▁abzuspielen	-12.5175
▁stapf	-12.5175
▁gekrümmt	-12.5175
▁MacBook	-12.5175
▁gestylt	-12.5175
▁Rückansicht	-12.5175
▁geblasen	-12.5175
Dinner	-12.5175
tracht	-12.5175
▁Hochsprung	-12.5175
▁Opfer	-12.5175
▁kurvige	-12.5175
▁Riesenrad	-12.5175
▁geworden	-12.5175
▁ungepflasterte	-12.5175
▁Fragen	-12.5175
▁Tanzschritt	-12.5175
▁starten	-12.5175
lebens	-12.5175
▁hindern	-12.5175
▁Formation	-12.5175
▁Sitzbank	-12.5175
▁Holzfußboden	-12.5175
▁Körn	-12.5175
▁hingefallen	-12.5175
sartikeln	-12.5175
▁Unterwasser	-12.5175
▁Malbuch	-12.5175
▁Abwasser	-12.5175
▁Campingstuhl	-12.5175
▁Fahrbahn	-12.5175
▁Gemüseauslage	-12.5175
▁gebrochene	-12.5175
vorspiel	-12.5175
▁Ferngläs	-12.5175
▁Mandel	-12.5175
▁Rafting	-12.5175
▁Vase	-12.5175
▁einheitliche	-12.5175
hundert	-12.5175
kstat	-12.5175
▁Startnummer	-12.5175
wägen	-12.5175
▁Bambusstange	-12.5175
uddhistische	-12.5175
▁grasen	-12.5175
▁Metallobjekte	-12.5175
▁Schreibmaschine	-12.5175
▁waldige	-12.5175
▁Bahntunnel	-12.5175
▁Eisschnelllauf	-12.5175
▁kul	-12.5175
▁Absprung	-12.5176
▁Fischabteilung	-12.5176
▁Plätz	-12.5176
iki	-12.5176
äugt	-12.5176
▁Rodeoarena	-12.5176
gewisse	-12.5176
▁Hasenkostüm	-12.5176
▁Akrobatik	-12.5176
▁Backsteinweg	-12.5176
▁Schnitz	-12.5176
▁Motorradhelm	-12.5176
▁Schublade	-12.5176
▁Head	-12.5176
▁Kristall	-12.5176
AR	-12.5176
▁Stump	-12.5176
panne	-12.5176
▁Friseurstuhl	-12.5176
▁herabgelassen	-12.5176
▁Samml	-12.5176
▁herzustellen	-12.5176
IR	-12.5176
Küchenutensilien	-12.5176
▁Behandlung	-12.5176
▁Patrick	-12.5176
▁dü	-12.5176
▁Saxophonisten	-12.5176
▁Polizeikräfte	-12.5176
▁Tret	-12.5176
gekämpft	-12.5176
▁Laufstrecke	-12.5176
▁Unfallort	-12.5176
▁Tanzstudio	-12.5176
▁Tanne	-12.5176
▁Mofa	-12.5176
entierten	-12.5176
▁Pinguin	-12.5176
▁abwischt	-12.5176
▁Basecap	-12.5176
▁Backg	-12.5176
▁Vorhand	-12.5176
▁Amerikanische	-12.5176
▁Baseballstadion	-12.5176
▁Computermonitor	-12.5176
▁Schwelle	-12.5176
▁Gummiball	-12.5176
▁Namensschildern	-12.5176
einheit	-12.5176
▁Kirschbäume	-12.5176
laubt	-12.5176
▁Metallpfanne	-12.5176
▁abgeschlossen	-12.5176
▁Wandgemälde	-12.5176
▁Kugelbad	-12.5176
▁Skysurf	-12.5176
olz	-12.5176
▁trommeln	-12.5176
▁Laufgitter	-12.5176
▁entsetzt	-12.5176
Tea	-12.5176
Sporthallenboden	-12.5176
▁Cater	-12.5176
▁einarmige	-12.5176
nabsperrungen	-12.5176
iole	-12.5176
wanne	-12.5176
▁kill	-12.5176
ausgang	-12.5176
efäß	-12.5176
overal	-12.5176
vö	-12.5176
▁gereckte	-12.5176
▁Boxershorts	-12.5176
▁Straßenkreuzung	-12.5176
motion	-12.5176
warengeschäft	-12.5176
▁Poker	-12.5176
▁jonglieren	-12.5176
▁Webs	-12.5176
▁Jacht	-12.5177
ändigen	-12.5177
gesackt	-12.5177
▁abgefüllte	-12.5177
▁Steinoberfläche	-12.5177
▁Grillrestaurant	-12.5177
ative	-12.5177
▁verkünde	-12.5177
▁verpasst	-12.5177
▁Schießstand	-12.5177
▁weiche	-12.5177
▁Tanzposition	-12.5177
▁Geschenkpapier	-12.5177
▁Vesp	-12.5177
▁platzt	-12.5177
▁Ratte	-12.5177
▁Mähne	-12.5177
▁Fotoalbum	-12.5177
teller	-12.5177
▁Dachshund	-12.5177
▁CD	-12.5177
▁Guck	-12.5177
heft	-12.5177
arley	-12.5177
▁Zufahrt	-12.5177
▁Rout	-12.5177
▁Will	-12.5177
▁OU	-12.5177
▁Seehafen	-12.5177
▁Möbelgeschäft	-12.5177
bock	-12.5177
▁festgehalten	-12.5177
▁Sportstudio	-12.5177
▁Nachbar	-12.5177
buster	-12.5177
▁Großmarkt	-12.5177
stirn	-12.5177
einfahrt	-12.5177
Turf	-12.5177
▁Bierdose	-12.5177
▁Arbeitsbank	-12.5178
▁Plastikeimer	-12.5178
▁Telefonleitung	-12.5178
▁Holzmöbeln	-12.5178
▁baumbe	-12.5178
EP	-12.5178
VE	-12.5178
▁dasteht	-12.5178
schritt	-12.5178
▁Hindernispfad	-12.5178
▁Dienst	-12.5178
▁Grabung	-12.5178
▁Rollschuhbahn	-12.5178
▁Eisblöcke	-12.5178
▁Imbisswagen	-12.5178
▁zuerst	-12.5178
▁Abfahrt	-12.5178
▁Abbild	-12.5178
▁Schulalter	-12.5178
▁Schoner	-12.5178
▁Strich	-12.5179
Le	-12.5179
▁Heft	-12.5179
Toy	-12.5179
▁stattfindet	-12.5179
GT	-12.5179
▁Springreite	-12.5179
▁Laubwerk	-12.5179
▁böse	-12.5179
▁Mä	-12.5179
▁Gummiente	-12.5179
▁Heil	-12.5179
▁Friseurladen	-12.5179
▁Luftblasen	-12.5179
▁Peter	-12.5179
▁Schaukelpferd	-12.5179
▁Metallpfosten	-12.5179
▁Schneiderin	-12.5179
▁Fensterfront	-12.5179
▁geschleudert	-12.5179
▁Strandbuggy	-12.5179
▁Becherglas	-12.5179
achtel	-12.5179
▁Mord	-12.5179
▁flie	-12.518
▁abprallen	-12.518
▁Autoschlüssel	-12.518
▁gebildet	-12.518
▁abhebt	-12.518
▁Essenstisch	-12.518
▁hoff	-12.518
▁Stierkampf	-12.518
▁Meister	-12.518
▁Grünanlage	-12.518
dsänger	-12.518
toter	-12.518
▁Zustand	-12.518
▁Holzbalken	-12.518
▁Gär	-12.518
▁Treib	-12.518
Wohnviertel	-12.518
kop	-12.518
yho	-12.518
▁Kofferraum	-12.518
▁qualmende	-12.518
utscht	-12.518
▁herunterkommt	-12.518
▁staunend	-12.518
▁vorübergehend	-12.518
▁Banjospieler	-12.518
▁Spieltunnel	-12.518
▁DI	-12.5181
▁Baseballuniform	-12.5181
hill	-12.5181
▁Miniröcke	-12.5181
artikel	-12.5181
▁Metallbank	-12.5181
▁Nass	-12.5181
egrenz	-12.5181
▁Holzblöcke	-12.5181
▁Gla	-12.5181
▁Bilderbuch	-12.5181
▁Wahl	-12.5181
Piratenschiff	-12.5181
Staffel	-12.5181
▁gelenkt	-12.5181
▁Stollen	-12.5181
▁Betongebäude	-12.5181
▁geklettert	-12.5181
▁Test	-12.5181
▁verhaftet	-12.5181
▁getrennt	-12.5182
kreuzung	-12.5182
▁vornüber	-12.5182
▁Steinbrücke	-12.5182
▁Mahl	-12.5182
low	-12.5182
▁Defensiv	-12.5182
▁Karatekampf	-12.5182
▁überwacht	-12.5182
▁Büchertasche	-12.5182
▁Untersch	-12.5182
▁Kata	-12.5182
▁Rollwagen	-12.5182
▁Stall	-12.5182
▁Metallstruktur	-12.5182
▁bevölkert	-12.5182
▁Hill	-12.5182
dock	-12.5182
notet	-12.5182
▁Federhut	-12.5182
▁Etage	-12.5182
▁vergraben	-12.5183
▁arrangiert	-12.5183
▁lümmelt	-12.5183
stoppt	-12.5183
▁Holzpfosten	-12.5183
▁Gepäcktasche	-12.5183
▁Legosteine	-12.5183
▁Sonnebrille	-12.5183
▁Lake	-12.5183
Kirmesattraktion	-12.5183
gungen	-12.5183
ankt	-12.5183
▁Spielkarten	-12.5183
▁westliche	-12.5183
▁Verkaufstand	-12.5183
▁Fac	-12.5183
▁PC	-12.5184
bund	-12.5184
▁Abteil	-12.5184
▁Metallgitter	-12.5184
▁fassen	-12.5184
▁schockier	-12.5184
▁Rechen	-12.5184
▁Abenteuer	-12.5184
▁düster	-12.5184
lschuhen	-12.5184
▁Dia	-12.5184
▁anzuz	-12.5184
schmecke	-12.5184
▁zurückgelegt	-12.5184
lov	-12.5184
ometern	-12.5184
▁Bri	-12.5184
▁Puten	-12.5184
▁Handbewegung	-12.5185
▁Ladenfenster	-12.5185
▁Mut	-12.5185
▁tak	-12.5185
▁Augenblick	-12.5185
cour	-12.5185
bri	-12.5185
▁Holzhütte	-12.5185
▁hochgestreckt	-12.5185
▁Brotstand	-12.5185
berre	-12.5185
▁hochgezogen	-12.5185
▁Skateranlage	-12.5186
▁Schneemobil	-12.5186
▁Anspr	-12.5186
▁Flussbett	-12.5186
▁Glasbehälter	-12.5186
▁Sandsturm	-12.5186
▁Warm	-12.5186
▁Leuchtstäbe	-12.5186
▁Standbild	-12.5186
aki	-12.5186
▁Stofftasche	-12.5186
▁Haustür	-12.5186
▁Partnerin	-12.5186
▁Wohnhauses	-12.5187
ierkasten	-12.5187
▁Metalldach	-12.5187
▁Wassersp	-12.5187
▁Holzdeck	-12.5187
spreizt	-12.5187
▁Cast	-12.5187
▁Wisch	-12.5188
▁Holzbrücke	-12.5188
macher	-12.5188
▁Babypuppe	-12.5188
▁Luftballontiere	-12.5188
▁kräftige	-12.5188
▁rotkarierte	-12.5188
▁Hunderennbahn	-12.5188
▁Still	-12.5188
derseit	-12.5188
▁Arbeitsfläche	-12.5188
▁Ex	-12.5188
▁Arbeitsort	-12.5189
▁Waldgegend	-12.5189
▁Klebe	-12.5189
strauch	-12.5189
▁Vorteil	-12.5189
▁Sandkasten	-12.519
▁Faden	-12.519
▁blockier	-12.519
ador	-12.519
▁Metallskulptur	-12.519
MC	-12.519
▁Verletz	-12.5191
▁Gehende	-12.5191
▁Betonbau	-12.5191
▁Adi	-12.5191
schabt	-12.5191
▁Kühlgerät	-12.5192
▁Ell	-12.5192
▁Feuerball	-12.5192
rnament	-12.5192
▁Holztreppe	-12.5193
veteran	-12.5193
▁Lotterielos	-12.5193
▁gelassen	-12.5193
stler	-12.5193
ufgeregte	-12.5193
▁Beat	-12.5193
pse	-12.5194
▁dahingleite	-12.5194
Wahlkampf	-12.5194
apf	-12.5194
▁Bedi	-12.5194
yel	-12.5195
▁Landmaschine	-12.5195
▁wenden	-12.5195
etta	-12.5195
tenhund	-12.5195
▁film	-12.5195
▁Monitore	-12.5195
halie	-12.5196
regal	-12.5196
▁Doberm	-12.5196
▁Profil	-12.5196
handel	-12.5196
▁Paddler	-12.5196
▁berittener	-12.5196
Cyclone	-12.5196
▁Herbstblätter	-12.5197
▁Bärenkostüm	-12.5197
äcks	-12.5197
▁Av	-12.5197
▁Steinstraße	-12.5198
▁fehlt	-12.5198
▁erlern	-12.5198
▁Bongotrommel	-12.5198
▁hinunterrutscht	-12.5198
▁Mop	-12.5198
ual	-12.5198
▁absolvieren	-12.5199
▁erkennen	-12.5199
▁Bear	-12.5199
▁Hol	-12.5199
▁gescho	-12.5199
ogaübungen	-12.5199
rdbeer	-12.5199
▁Pferdewagen	-12.5199
▁zerlegen	-12.5199
rgeld	-12.5199
übungen	-12.5199
Kurzhaar	-12.5199
AS	-12.5199
▁abgefeuert	-12.52
▁Eisfläche	-12.52
▁konkurrieren	-12.52
▁hochkommt	-12.52
▁Zuschauerraum	-12.5201
▁Kameracrew	-12.5201
▁Vorgesetzte	-12.5201
▁Handtrommel	-12.5201
▁bestaunen	-12.5202
▁Cand	-12.5202
▁Holzwand	-12.5202
▁Gitarrespielen	-12.5203
▁Sportfeld	-12.5204
Paris	-12.5204
▁Weit	-12.5204
▁Steinhäuser	-12.5204
fällen	-12.5205
▁Armut	-12.5205
▁Fensterscheibe	-12.5205
▁Rec	-12.5205
liger	-12.5205
ballspieler	-12.5206
Shi	-12.5206
▁reife	-12.5206
▁Piratenkostüm	-12.5206
rtsansässige	-12.5207
tschaft	-12.5207
oble	-12.5207
nister	-12.5208
▁Bou	-12.5209
▁Tupfe	-12.521
▁angewinkelt	-12.521
▁hum	-12.521
▁Wanderschuhe	-12.5211
▁Stadtbus	-12.5211
▁Bademütze	-12.5211
gekämmte	-12.5211
Hähnchen	-12.5211
rücken	-12.5212
ura	-12.5212
▁Stadtgebäude	-12.5212
▁schlicht	-12.5212
▁erstaunt	-12.5212
tmet	-12.5212
▁beigebracht	-12.5212
▁Amerika	-12.5213
▁Pinguine	-12.5213
▁Motorradhelme	-12.5213
▁Pedale	-12.5213
▁Brut	-12.5213
▁Bereitschafts	-12.5213
clowns	-12.5213
▁Cupcakes	-12.5213
▁Gyros	-12.5213
▁Muffins	-12.5213
▁molliges	-12.5213
▁Einzelhandels	-12.5214
schirmt	-12.5214
▁Punkte	-12.5214
▁beschrifte	-12.5214
röcken	-12.5214
▁Stopp	-12.5214
▁abenteuerl	-12.5215
▁gesammelt	-12.5215
▁Hüpf	-12.5215
▁Play	-12.5215
▁Verbindung	-12.5215
▁Fäustlingen	-12.5215
▁Hippie	-12.5215
▁Leuchtreklame	-12.5215
▁Ohio	-12.5215
▁erobern	-12.5215
▁geblieben	-12.5215
▁zwanzig	-12.5215
▁umrandet	-12.5215
▁South	-12.5215
▁Grashügel	-12.5215
▁Cabrio	-12.5215
▁Light	-12.5215
▁Jim	-12.5215
▁Farbspr	-12.5215
einzel	-12.5215
▁Sitzung	-12.5216
▁Casino	-12.5216
▁Spenden	-12.5216
▁Klötze	-12.5216
▁geheftet	-12.5216
▁Ac	-12.5216
▁erwart	-12.5216
▁Stewardess	-12.5217
▁Stunde	-12.5217
üche	-12.5217
▁bejubel	-12.5217
▁Pian	-12.5217
▁Holzv	-12.5218
isierung	-12.5218
▁Autofenster	-12.5218
chst	-12.5218
blut	-12.5218
▁Wasserschlacht	-12.5218
▁Wasserbrunnen	-12.5218
▁Musikerin	-12.5219
▁Gew	-12.5219
enwender	-12.522
▁Teenagerinnen	-12.5221
▁Holzhaus	-12.5221
▁Seilbahn	-12.5221
▁später	-12.5222
▁Schlittschuhe	-12.5224
leuchtungskörper	-12.5224
ängs	-12.5225
▁Laufkleidung	-12.5225
▁Allee	-12.5225
▁Protestant	-12.5226
▁Liege	-12.5226
zustellen	-12.5229
▁Betonmisch	-12.5229
zuklettern	-12.5229
▁Spielzeughaus	-12.523
▁Verkäuferin	-12.523
▁herumläuft	-12.523
▁Fahrradrahmen	-12.5231
▁hüf	-12.5231
hake	-12.5231
Carol	-12.5231
halte	-12.5232
▁Fahrradständer	-12.5232
▁Weih	-12.5232
lenker	-12.5233
▁Stadtlandschaft	-12.5233
▁verladen	-12.5234
▁Baufahrzeug	-12.5234
▁Gitarristin	-12.5234
ath	-12.5235
▁Anzugjacke	-12.5235
prallen	-12.5235
▁Feierlichkeit	-12.5235
▁Pit	-12.5235
▁Cost	-12.5236
Rave	-12.5236
▁zugeknöpft	-12.5237
ongoli	-12.5237
▁herumlaufen	-12.5238
▁Gewichte	-12.5238
▁Bauten	-12.5239
▁angenehme	-12.5239
▁Steiger	-12.5239
▁früher	-12.524
▁durchgeführt	-12.524
räzis	-12.5241
▁Nüsse	-12.5241
▁Straßengeschäft	-12.5241
▁eleganten	-12.5241
bullen	-12.5242
▁versorgen	-12.5242
▁Holzstücken	-12.5242
▁Turnübungen	-12.5242
▁Identi	-12.5242
▁Sekt	-12.5243
▁bevölkerten	-12.5243
kizz	-12.5243
▁Pion	-12.5245
▁Angeles	-12.5246
▁Schlafen	-12.5246
▁King	-12.5247
▁Kasten	-12.5247
▁hinunterzu	-12.5247
▁Feldern	-12.5248
▁Sol	-12.525
▁Tang	-12.5251
inter	-12.5251
▁verk	-12.5252
melige	-12.5255
▁Blumenladen	-12.5256
geguckt	-12.5256
▁Buchladen	-12.5256
▁Dung	-12.5256
serv	-12.5257
▁Jahrmarktspiele	-12.5257
▁Kinderbett	-12.5257
▁Handarbeit	-12.5257
▁Gru	-12.5259
▁wackelig	-12.5262
▁Kleidergeschäft	-12.5262
änder	-12.5264
▁Cher	-12.5266
schlossene	-12.5268
ssbare	-12.5268
Pain	-12.527
Einkauf	-12.527
ahverkehrs	-12.527
schichten	-12.5271
ktionen	-12.5271
▁Pont	-12.5272
▁Trainingsgerät	-12.5272
▁Kassierer	-12.5273
▁Kickboxer	-12.5274
▁Hochseil	-12.5274
▁Blumengeschäft	-12.5275
▁Rasierer	-12.5277
abgelassen	-12.5277
PN	-12.5277
▁Bergweg	-12.5278
▁Set	-12.5279
▁Schachspiel	-12.528
▁Saxofonist	-12.5282
AN	-12.5283
▁Cap	-12.5283
▁Kinderschaukel	-12.5284
▁Care	-12.5285
▁reißen	-12.5286
itiert	-12.5286
▁bin	-12.5286
▁Schulk	-12.5288
▁Wintermütze	-12.5289
peace	-12.5291
▁Turnanzüge	-12.5292
▁sorgt	-12.5292
▁Spielgeräten	-12.5293
boxer	-12.5294
▁angelegte	-12.5295
gepresst	-12.5299
Schwimmwettkampf	-12.5305
▁Holzk	-12.5306
Gallo	-12.5307
▁Holzsp	-12.5307
▁Feldfrüchte	-12.5308
versuch	-12.531
Re	-12.5312
▁Biersorte	-12.5315
äfe	-12.5316
ket	-12.5316
▁Eule	-12.5317
▁verlaufen	-12.5318
▁schmutzig	-12.5324
▁verf	-12.5324
Job	-12.5327
hunde	-12.533
▁Elfen	-12.5331
▁Gip	-12.5333
▁Pfeiler	-12.5333
▁feiner	-12.5335
was	-12.5337
Cru	-12.5337
▁Cu	-12.5337
lichter	-12.5338
▁Milchk	-12.5338
ickoff	-12.534
▁Fahrradfahren	-12.5341
ehutsam	-12.5346
▁Bie	-12.5347
▁Vierrad	-12.5348
ustige	-12.5348
gestreckt	-12.5351
▁einmal	-12.5351
▁erhältlich	-12.5354
▁Kipplast	-12.5354
Geschäftsviertel	-12.5357
zweig	-12.5358
kabel	-12.5368
▁Löwenstatu	-12.537
Pipe	-12.5372
HL	-12.5375
▁Assistent	-12.5375
nisse	-12.538
▁erre	-12.5384
▁Nes	-12.5385
leidet	-12.5386
▁Pack	-12.5388
ringer	-12.539
▁absich	-12.5394
▁Cur	-12.5394
ageszeit	-12.5397
▁Komo	-12.5415
▁Golfer	-12.5415
▁Manager	-12.5425
▁Schweißen	-12.5431
springen	-12.544
zieher	-12.5445
▁verschiedenste	-12.5447
ktisch	-12.5448
Move	-12.545
Range	-12.5452
arage	-12.5458
ült	-12.5459
das	-12.5459
Metallabsperrung	-12.5462
rient	-12.5464
▁gesp	-12.5468
stimm	-12.5468
fälscht	-12.5469
▁Reg	-12.547
reinigungs	-12.547
▁Tanzbewegung	-12.5473
▁Hind	-12.5477
Ticket	-12.5485
ballspiel	-12.5488
got	-12.549
Generat	-12.5492
▁Sil	-12.5494
▁Sportschuhe	-12.5504
liga	-12.5505
steuert	-12.5508
▁Rauchfa	-12.5523
Marti	-12.5529
sponsert	-12.5538
ekunden	-12.554
▁Recht	-12.5546
▁umherblick	-12.5548
behang	-12.5549
▁Tonne	-12.5557
▁spende	-12.5557
wette	-12.5563
▁dunkelrot	-12.5566
amerikaner	-12.5568
osen	-12.5572
ondel	-12.5576
▁beschmie	-12.5585
LE	-12.5587
▁parkende	-12.5589
▁Profirenn	-12.559
▁dreieck	-12.5614
▁chinesisch	-12.5616
▁Ausgeh	-12.5627
lötz	-12.5636
▁mode	-12.5669
ochschul	-12.5671
einer	-12.5674
tungsfahrzeug	-12.568
▁Houst	-12.5681
▁Disk	-12.5688
Dudelsackspieler	-12.5688
▁geschaff	-12.5689
montiert	-12.5695
▁Parkg	-12.57
▁beliebt	-12.5705
Rac	-12.5711
itu	-12.5717
▁Bake	-12.5727
LA	-12.5727
▁Streethockey	-12.5743
▁buckel	-12.5746
▁ergrau	-12.5749
▁bearbeite	-12.5753
endes	-12.5757
festival	-12.577
rojektorleinwand	-12.5786
▁Mittelf	-12.5789
▁Landes	-12.58
lton	-12.5804
▁Mik	-12.5806
▁abst	-12.5815
So	-12.5816
▁verwe	-12.5826
agel	-12.5829
ärtiger	-12.5831
Event	-12.5832
hergestellt	-12.5838
soldat	-12.5864
▁metallisch	-12.5873
▁informelle	-12.589
▁goldfarben	-12.5898
toria	-12.5905
ina	-12.5909
edenkstätte	-12.5922
DA	-12.5924
leger	-12.5925
▁begrü	-12.595
▁Auszei	-12.5965
okus	-12.5971
▁spritzende	-12.5975
Wall	-12.6002
uten	-12.6005
langgeht	-12.6019
emand	-12.6027
ernsehbildschirm	-12.6041
▁Computertisch	-12.6047
▁Tab	-12.6106
▁protestierend	-12.6116
getränkte	-12.6118
▁gelbliche	-12.6129
trock	-12.6144
aktion	-12.6149
Pop	-12.616
▁gera	-12.6171
Work	-12.6187
▁Reisende	-12.6205
▁herunterhäng	-12.6208
Süßigkeitenladen	-12.6218
rou	-12.622
auslage	-12.6231
leuchtet	-12.6268
tschen	-12.6297
▁Aufgeb	-12.6343
▁neongelbe	-12.635
bauch	-12.6362
▁Falt	-12.6362
eligiöse	-12.6385
Talk	-12.6422
▁sollte	-12.6442
▁größere	-12.6453
▁Kondome	-12.6477
öl	-12.6477
▁extravagante	-12.6481
▁geschwungene	-12.6481
▁erschaff	-12.6482
Sängerinnen	-12.6512
formiert	-12.6516
lk	-12.6517
▁grinsend	-12.6525
okal	-12.6567
tröstet	-12.6573
▁schwe	-12.6579
gehoben	-12.6591
▁Sti	-12.6628
▁herschieb	-12.663
▁Sportmannschaft	-12.6641
usdruck	-12.6676
▁Thor	-12.6686
▁hockend	-12.6694
▁Frauenba	-12.6696
lliert	-12.6697
▁wirkende	-12.6701
▁Chil	-12.675
▁Speisende	-12.6794
▁hinaufgeh	-12.6888
yan	-12.6891
schleppen	-12.6907
Spielzeugrutsche	-12.6938
ores	-12.694
by	-12.6972
quet	-12.6984
nförmig	-12.6992
ettern	-12.7013
▁formale	-12.706
▁verschwitzte	-12.7069
▁Chinesische	-12.707
▁Profispiel	-12.7081
▁hochstehende	-12.7095
▁Japanerin	-12.7109
gefallen	-12.7132
AT	-12.7225
▁dick	-12.7239
rkunde	-12.7278
erlangen	-12.7279
gezeichnete	-12.7304
schafts	-12.7377
exikanische	-12.741
▁Kli	-12.742
▁Steinb	-12.7426
▁nachdenk	-12.7434
▁gebra	-12.7478
treichinstrument	-12.7498
find	-12.7519
▁kaputt	-12.7596
arkasse	-12.7694
ielt	-12.7706
▁fremd	-12.7717
▁weitergeh	-12.7742
upft	-12.7807
eide	-12.7836
Spielzeugfahrrad	-12.7932
▁geschäftig	-12.7938
▁Rau	-12.7954
▁merkwürdig	-12.7976
▁Anwe	-12.8028
otst	-12.8067
▁jünger	-12.8115
▁gegrillt	-12.812
▁geformte	-12.8122
▁projizierte	-12.8159
erfahren	-12.8169
erbeplakat	-12.8218
▁Sitzp	-12.822
▁Walt	-12.8225
▁identische	-12.8333
▁Kletter	-12.8398
gesch	-12.8432
▁Billi	-12.845
▁Geigespiele	-12.8505
öde	-12.8599
rimmig	-12.8634
▁künstlich	-12.8723
erz	-12.8758
▁verkaufende	-12.8762
inky	-12.8764
day	-12.8774
udert	-12.8797
jährige	-12.8813
ärt	-12.8847
▁Schneeräum	-12.888
Magazine	-12.8893
dünnen	-12.8929
▁einzigartig	-12.8987
▁Offens	-12.9002
unststück	-12.9044
▁männlich	-12.909
unterhalt	-12.9093
▁jähr	-12.9265
kelt	-12.9269
fensiv	-12.929
▁Kennzeich	-12.9428
gepäck	-12.9457
chtet	-12.947
▁Crou	-12.9489
sschiff	-12.9498
▁Schneehose	-12.9526
▁Refle	-12.9572
▁dritt	-12.9578
▁weinen	-12.9585
mpft	-12.9633
tetes	-12.9729
Ku	-12.9761
▁unbekannt	-12.9791
chutzmaske	-12.9794
▁historisch	-12.9915
Moto	-12.9935
▁knapp	-12.9958
▁Außenwa	-12.9962
▁projiziert	-12.9994
▁Motorradfahre	-13.0034
▁geformt	-13.0038
ießen	-13.0042
etzes	-13.0079
AL	-13.0087
▁spitz	-13.0095
lots	-13.0122
glaste	-13.0204
otelzimmer	-13.0236
▁Bekannt	-13.0312
othaarige	-13.0321
LO	-13.0332
Wasseroberfläche	-13.0344
iker	-13.0427
verfärb	-13.045
lupf	-13.0497
ouv	-13.0511
ahrstuhl	-13.057
Butter	-13.0572
Fitnessgerät	-13.0594
eklameschild	-13.0653
Formen	-13.0843
braten	-13.0866
▁neugierig	-13.088
▁para	-13.0885
gedrängte	-13.0938
▁Mexikan	-13.0957
▁frag	-13.11
atterie	-13.1103
▁Schulba	-13.1148
▁Medaill	-13.1233
▁Entfe	-13.1262
▁pflaster	-13.1349
errschaft	-13.1421
▁verschwitzt	-13.1457
▁Chinesisch	-13.146
▁formal	-13.1472
▁schlepp	-13.1508
plat	-13.153
▁Schwertkamp	-13.157
ommerlich	-13.1603
▁herumspring	-13.168
▁unterzeichne	-13.175
volleyball	-13.1772
himmel	-13.187
▁Gummih	-13.1878
▁durchstreif	-13.1924
▁herausgeho	-13.1931
▁Teamkolleg	-13.1976
▁menschlich	-13.1976
bäck	-13.1992
stick	-13.2015
afrika	-13.2035
▁mehrfarbig	-13.204
modell	-13.2058
Boxen	-13.2073
wehr	-13.2192
▁niedlich	-13.2246
lok	-13.228
Boss	-13.2328
Legos	-13.2343
▁formier	-13.2392
▁extravagant	-13.2414
▁geschwungen	-13.2415
▁Kondom	-13.2422
folgung	-13.2499
züg	-13.251
▁Einstieg	-13.2582
▁Religi	-13.2584
▁betrieb	-13.259
aumelt	-13.2621
großen	-13.2625
geb	-13.2625
▁anbiete	-13.2684
▁künstlerisch	-13.2691
Regalen	-13.2703
▁Trag	-13.2719
hockeyspieler	-13.2735
▁schenk	-13.2802
frei	-13.2804
▁wühl	-13.2847
aufensterauslage	-13.2864
abell	-13.2882
▁Traktorfahr	-13.2925
Porträts	-13.2949
▁Polizeihu	-13.2982
▁Flu	-13.3066
darunterliegende	-13.3085
erstellt	-13.3111
arbeitsplatte	-13.3145
amische	-13.3169
öne	-13.3255
▁Vorschul	-13.3256
Anlege	-13.3281
▁Synchron	-13.3362
▁Kok	-13.3371
▁indig	-13.3394
wolle	-13.3398
kifahrer	-13.3433
▁Felsabh	-13.3454
Stiften	-13.3461
▁Doppeldecker	-13.3545
▁kipp	-13.3561
schatt	-13.3573
oldaten	-13.3583
NE	-13.361
▁Innens	-13.3625
▁Gewürz	-13.3636
Bra	-13.3683
▁Schwimmhilf	-13.3702
tlinge	-13.3735
leinwand	-13.3751
▁Chip	-13.3832
ktor	-13.3837
Klo	-13.3849
▁Liv	-13.3865
Hängen	-13.391
▁Hous	-13.3988
frans	-13.4015
▁Straßenverkaufs	-13.4038
▁scharf	-13.4038
öpfen	-13.404
wäsche	-13.4044
lötze	-13.4074
▁Kastanien	-13.4094
steuer	-13.4158
▁Metallkonstrukt	-13.4167
tudio	-13.4175
▁Du	-13.4191
treibt	-13.4193
▁Tar	-13.4228
▁Regenbogenfa	-13.4237
spül	-13.4257
spenden	-13.4277
▁Sal	-13.429
▁gespons	-13.4298
fällt	-13.4325
▁sportlich	-13.4333
äser	-13.4334
egler	-13.4341
zzle	-13.4341
öße	-13.4345
zeichnen	-13.4375
icket	-13.4394
berschwemm	-13.442
ungsfahrzeug	-13.443
▁Röhr	-13.4435
rosc	-13.4451
schiebt	-13.4492
Zeitung	-13.4492
▁Juwelier	-13.4504
▁Klass	-13.451
ators	-13.4528
▁Chun	-13.4548
agerin	-13.4557
▁besprüh	-13.4621
awa	-13.4627
▁Flöt	-13.4638
äng	-13.4638
▁Assisten	-13.4676
AH	-13.4683
schrei	-13.47
eduldig	-13.4721
sportart	-13.4736
ß	-13.4743
wirtschaftliche	-13.4746
▁ausruh	-13.4747
sprüht	-13.4748
essel	-13.475
arkt	-13.4795
Fußballer	-13.4811
▁zerstö	-13.4817
▁dekorier	-13.4836
früchten	-13.4839
▁herausrag	-13.4848
ütze	-13.4849
ärger	-13.4849
▁wälz	-13.4868
▁Kickbox	-13.4869
▁lö	-13.4877
egrüß	-13.488
plät	-13.4901
▁herunterzufa	-13.4907
▁aussehe	-13.4914
geregt	-13.4919
▁Kassier	-13.4924
▁verg	-13.4932
▁Sanitä	-13.4938
Subs	-13.4939
treffe	-13.4941
Junge	-13.4943
schippe	-13.4943
gezäunte	-13.4944
Hose	-13.4947
▁unkon	-13.495
gegenstand	-13.4952
▁wackel	-13.4953
lossen	-13.4957
▁aufgebau	-13.4957
orangefarbene	-13.4959
trollier	-13.496
▁Podi	-13.4971
▁Grashü	-13.4974
▁bevölker	-13.4977
jubeln	-13.4981
text	-13.499
▁Muske	-13.4997
ätsche	-13.4997
▁taus	-13.5012
▁vermis	-13.5015
▁Offen	-13.5018
schneide	-13.5019
▁verwirr	-13.5025
▁Eistüte	-13.5026
▁Markise	-13.5026
▁Unterlage	-13.5026
▁Spanie	-13.5026
▁Strümpfe	-13.5026
▁Schnauz	-13.5027
▁abgestimmte	-13.5027
▁Latte	-13.5029
uddelt	-13.5029
▁Sicherheit	-13.503
▁grü	-13.5031
▁Neu	-13.5031
trage	-13.5032
▁lackier	-13.5032
▁Paddel	-13.5033
▁Saite	-13.5033
▁Drähte	-13.5033
▁Melone	-13.5033
▁Tennisbälle	-13.5033
perspektive	-13.5035
▁Matrose	-13.5037
▁Ruine	-13.5037
▁Hake	-13.5039
funden	-13.504
▁Baumstämme	-13.5041
▁Brautjungfer	-13.5041
▁Stromschnelle	-13.5043
▁Lippe	-13.5045
▁gelegene	-13.5045
inkauf	-13.5045
▁faszinier	-13.5045
▁Bänke	-13.5047
▁Dunkel	-13.5047
bänder	-13.5047
▁Streife	-13.5047
▁Mäntel	-13.5047
hole	-13.5048
▁nehme	-13.5049
▁Clow	-13.505
üft	-13.5052
richtet	-13.5053
Magazin	-13.5054
▁massi	-13.5058
blasen	-13.506
ütter	-13.5062
rahmte	-13.5064
Baseballspiel	-13.5066
verwe	-13.5066
hell	-13.5067
Musik	-13.5067
▁aufwirbel	-13.5069
gold	-13.5069
Play	-13.5069
Amerika	-13.5069
Hippie	-13.5069
Leuchtreklame	-13.5069
Fäustlingen	-13.5069
Hüpf	-13.5069
Ohio	-13.5069
Punkte	-13.5069
South	-13.5069
Verbindung	-13.5069
geblieben	-13.5069
zwanzig	-13.5069
erobern	-13.5069
Pian	-13.5069
Farbspr	-13.5069
Pinguin	-13.5069
Light	-13.5069
Jim	-13.5069
Schwimmflügel	-13.5069
umrandet	-13.5069
Cabrio	-13.507
Klötze	-13.507
▁entko	-13.507
angeln	-13.507
bewa	-13.507
Stunde	-13.507
schnallt	-13.507
abenteuer	-13.507
Casino	-13.5071
film	-13.5071
Fußballspiel	-13.5071
gedrehte	-13.5072
hantel	-13.5073
▁lock	-13.5073
▁Muffin	-13.5073
▁Bereitschaft	-13.5073
▁Cupcake	-13.5073
▁Gyro	-13.5073
clown	-13.5073
▁mollige	-13.5073
▁Einzelhandel	-13.5073
Stopp	-13.5074
spur	-13.5075
▁lust	-13.5076
Geländefahr	-13.5077
▁erstaun	-13.5077
egon	-13.5078
ähnchen	-13.5078
kämmt	-13.5078
Jahren	-13.5079
Spanien	-13.5079
Attraktion	-13.5079
Briefkasten	-13.5079
Farbstiften	-13.5079
Jazz	-13.5079
Liga	-13.5079
Planschbecken	-13.5079
Whirlpool	-13.5079
knurrt	-13.5079
kröte	-13.5079
Frucht	-13.5079
gekauft	-13.5079
Markierung	-13.5079
Menü	-13.5079
Green	-13.5079
weinrot	-13.5079
pflücken	-13.5079
bricht	-13.5079
ziel	-13.508
Schw	-13.508
Los	-13.5081
Lou	-13.5082
▁Frühling	-13.5082
Live	-13.5082
tägliche	-13.5083
Transparent	-13.5083
Anlage	-13.5083
Pulver	-13.5083
SpongeBob	-13.5083
Tintenfisch	-13.5083
behinderte	-13.5083
Offizier	-13.5083
befördert	-13.5083
verdienen	-13.5083
wirbt	-13.5083
typische	-13.5083
gewinkelt	-13.5083
Country	-13.5083
Flohmarkt	-13.5084
„	-14.7494
q	-14.7495
Z	-14.7496
